<pad>	0
<unk>	0
<s>	0
</s>	0
.	-3.15383
▁	-3.17509
,	-3.73444
'	-3.95739
?	-3.99293
s	-3.99846
▁I	-4.32424
▁the	-4.42564
▁you	-4.50924
▁to	-4.66861
▁-	-4.71076
の	-4.72267
▁a	-4.87145
。	-4.91635
t	-4.92278
!	-4.92848
を	-4.98745
は	-5.01147
が	-5.21549
に	-5.23405
▁of	-5.26656
...	-5.31029
▁it	-5.34976
▁and	-5.43196
▁that	-5.47009
、	-5.47383
▁in	-5.48073
▁is	-5.50519
▁You	-5.64082
re	-5.68885
m	-5.69286
▁me	-5.73693
だ	-5.76548
と	-5.82604
▁for	-5.87836
で	-5.90033
▁on	-5.99513
▁be	-6.00773
よ	-6.00925
▁have	-6.02028
d	-6.03774
▁this	-6.03809
▁your	-6.04431
か	-6.05901
▁was	-6.07994
▁not	-6.08841
)	-6.10312
ed	-6.11398
▁we	-6.12164
ing	-6.1219
な	-6.22289
▁do	-6.2396
▁with	-6.24005
▁know	-6.24077
▁are	-6.24619
▁We	-6.26213
▁my	-6.26276
▁he	-6.2924
も	-6.29419
▁It	-6.29922
▁can	-6.34846
▁He	-6.37095
-	-6.37422
▁what	-6.3929
ll	-6.39857
▁What	-6.40155
から	-6.44634
▁The	-6.47113
▁And	-6.47599
▁"	-6.49846
▁don	-6.5234
▁him	-6.55838
▁out	-6.57434
▁all	-6.59372
▁here	-6.59621
▁they	-6.59672
▁just	-6.64086
▁like	-6.6505
▁No	-6.65478
▁(	-6.66481
▁will	-6.67805
▁up	-6.69135
"	-6.69298
ve	-6.70978
▁get	-6.72232
▁about	-6.72785
▁right	-6.76242
る	-6.78158
▁there	-6.78895
わ	-6.80592
▁at	-6.80934
・	-6.81561
▁one	-6.81875
er	-6.81906
▁them	-6.829
です	-6.83505
▁her	-6.83711
た	-6.84004
▁from	-6.84027
▁go	-6.8473
ね	-6.85508
した	-6.86048
▁That	-6.87005
▁no	-6.88353
▁so	-6.89245
し	-6.90069
(	-6.90807
:	-6.91368
って	-6.92283
▁but	-6.92485
▁got	-6.95043
y	-6.95197
▁his	-6.95856
▁who	-6.98572
▁if	-6.99872
い	-7.00355
▁want	-7.01672
する	-7.03661
▁think	-7.04235
んだ	-7.05581
n	-7.06602
▁A	-7.07212
して	-7.09215
▁an	-7.11074
▁us	-7.11387
▁But	-7.11403
▁as	-7.13283
▁So	-7.14317
▁she	-7.16801
▁now	-7.1708
▁see	-7.18006
ly	-7.18731
▁back	-7.18814
▁This	-7.19254
▁were	-7.19952
さ	-7.20274
▁time	-7.21252
▁Oh	-7.21988
▁gonna	-7.2253
▁need	-7.22882
ら	-7.23462
▁They	-7.23986
▁been	-7.2473
て	-7.25572
▁私は	-7.27089
▁She	-7.27342
▁did	-7.27462
▁going	-7.28305
▁Yeah	-7.28479
ない	-7.29338
▁Well	-7.30863
▁この	-7.31984
▁would	-7.32255
▁good	-7.33011
▁had	-7.34216
▁has	-7.34504
▁when	-7.35241
▁or	-7.35646
e	-7.3736
▁♪	-7.38572
▁by	-7.39195
in	-7.40127
▁our	-7.42962
r	-7.43356
なら	-7.43744
▁彼は	-7.43933
▁come	-7.46436
▁man	-7.46571
▁some	-7.47066
▁down	-7.47573
り	-7.4774
al	-7.47871
▁way	-7.48635
▁How	-7.49192
ス	-7.49514
▁their	-7.51121
▁say	-7.5155
▁take	-7.51741
には	-7.51766
▁could	-7.53652
▁その	-7.54023
ー	-7.54043
▁There	-7.55149
▁people	-7.55353
▁If	-7.56062
▁said	-7.57106
った	-7.57202
I	-7.58905
く	-7.59023
▁didn	-7.60511
▁more	-7.60751
▁Hey	-7.61263
や	-7.61526
a	-7.61864
▁Do	-7.62571
だった	-7.62578
o	-7.62781
▁over	-7.62827
▁make	-7.63389
▁All	-7.64096
▁how	-7.64124
ろ	-7.64426
人	-7.64735
▁something	-7.64842
▁tell	-7.66956
1	-7.6759
いた	-7.68001
2	-7.69079
▁Okay	-7.7115
es	-7.71334
のか	-7.71548
;	-7.72115
ク	-7.72154
▁then	-7.73019
▁should	-7.73132
or	-7.73385
じゃない	-7.73858
ル	-7.74916
▁でも	-7.74981
▁only	-7.75346
▁My	-7.76179
▁God	-7.76555
▁never	-7.76733
▁off	-7.76803
▁those	-7.77349
▁too	-7.78808
▁any	-7.78925
す	-7.79873
▁Come	-7.80165
_	-7.81936
▁Don	-7.82699
c	-7.83013
ます	-7.83573
▁find	-7.8447
i	-7.84521
▁really	-7.84548
その	-7.84814
ぞ	-7.85105
b	-7.85149
l	-7.85278
▁let	-7.85702
▁Let	-7.85972
▁little	-7.871
▁help	-7.87242
▁where	-7.87522
がある	-7.88033
」	-7.88104
▁Allah	-7.88417
う	-7.88553
▁それは	-7.89269
▁into	-7.89648
▁お	-7.8975
▁Why	-7.89969
▁look	-7.90012
▁もう	-7.90897
時	-7.91153
者	-7.91239
g	-7.92209
▁mean	-7.92383
S	-7.93065
▁S	-7.94568
▁than	-7.94891
le	-7.95006
いる	-7.9522
▁before	-7.95603
▁thing	-7.95731
お	-7.96113
▁am	-7.96538
・・・	-7.96555
▁okay	-7.97058
のは	-7.97767
ト	-7.98044
▁two	-7.98347
▁Where	-7.98664
まで	-7.99162
▁work	-7.99302
なかった	-7.9947
ド	-7.99667
th	-7.99792
リー	-7.99821
▁very	-8.0034
。」	-8.00434
▁day	-8.00753
▁give	-8.01859
▁2	-8.0197
ん	-8.02097
▁Who	-8.02344
ム	-8.02399
it	-8.02432
p	-8.02633
▁あなたは	-8.02909
--	-8.03068
▁even	-8.03385
▁Just	-8.0353
へ	-8.03858
3	-8.04101
▁そう	-8.04154
リ	-8.0422
▁life	-8.04323
▁彼女は	-8.04438
▁Yes	-8.04587
だけ	-8.05015
▁doing	-8.05284
ア	-8.05627
▁why	-8.0566
ラ	-8.05687
します	-8.05834
▁much	-8.05975
▁Now	-8.06049
an	-8.06432
▁B	-8.06577
]	-8.06599
してる	-8.06639
ion	-8.06657
された	-8.07026
▁other	-8.07526
また	-8.07754
▁love	-8.07861
▁Mr	-8.08067
さん	-8.08175
である	-8.083
▁C	-8.08354
▁1	-8.08384
▁何	-8.08419
き	-8.08559
こと	-8.0869
▁「	-8.08936
つ	-8.09004
▁私の	-8.09155
u	-8.09416
でも	-8.09443
分	-8.09668
▁anything	-8.09748
この	-8.09966
▁still	-8.11212
だろ	-8.11556
▁name	-8.12402
▁Not	-8.1333
め	-8.13502
日	-8.13677
▁away	-8.13995
している	-8.14115
▁Get	-8.14563
▁sorry	-8.14808
けど	-8.14961
▁ああ	-8.15071
▁believe	-8.15237
ナ	-8.15568
on	-8.15655
▁[	-8.15661
▁今	-8.1578
▁Look	-8.15857
▁call	-8.16002
▁sure	-8.1609
el	-8.16187
▁home	-8.17038
▁last	-8.17298
A	-8.17305
▁In	-8.17576
ur	-8.17669
そう	-8.18376
▁made	-8.18424
▁these	-8.18709
▁Are	-8.19008
▁night	-8.19182
ことを	-8.19208
▁thought	-8.19788
▁after	-8.20325
ch	-8.20706
O	-8.2161
よう	-8.21675
C	-8.22094
事	-8.22328
▁talk	-8.22452
ro	-8.2271
▁place	-8.22732
en	-8.22902
▁first	-8.22928
▁because	-8.22933
▁Your	-8.23017
いい	-8.23939
▁which	-8.24134
▁いや	-8.24417
▁君は	-8.24656
だろう	-8.24754
▁again	-8.24906
ic	-8.24974
―	-8.25206
▁そして	-8.2527
▁told	-8.25379
D	-8.25617
だよ	-8.25945
タ	-8.25995
h	-8.2635
."	-8.26422
ま	-8.26934
マ	-8.27319
▁well	-8.27324
下	-8.27724
▁long	-8.28216
子	-8.28968
▁それで	-8.29475
ズ	-8.29831
▁When	-8.30128
▁keep	-8.3033
▁Lord	-8.30402
▁これは	-8.30655
▁must	-8.30946
▁Can	-8.31043
▁Please	-8.31127
年	-8.31208
ブ	-8.32337
▁things	-8.32577
み	-8.32706
▁better	-8.32825
▁To	-8.33238
▁私が	-8.33248
ッ	-8.33792
▁car	-8.33913
▁kill	-8.34099
なんだ	-8.34169
▁俺は	-8.34241
▁Go	-8.3429
▁please	-8.34439
▁put	-8.345
なさい	-8.3455
ers	-8.34752
x	-8.35264
れ	-8.35397
▁ever	-8.35539
言った	-8.35552
se	-8.35803
ロ	-8.36294
。「	-8.36545
え	-8.36573
T	-8.36677
▁may	-8.36817
ば	-8.36976
になる	-8.37021
▁あの	-8.37053
us	-8.37923
っ	-8.38003
▁guy	-8.38085
ある	-8.38127
ation	-8.38281
ました	-8.38371
▁de	-8.38693
では	-8.38721
▁won	-8.38914
▁years	-8.39003
出	-8.39059
なの	-8.39136
▁found	-8.39328
▁あなたの	-8.40652
▁F	-8.40681
見	-8.40791
▁3	-8.40909
ar	-8.41186
▁なぜ	-8.41217
▁nothing	-8.41277
▁around	-8.41625
▁new	-8.41786
物	-8.4233
▁through	-8.42384
▁does	-8.42769
▁done	-8.42887
▁何か	-8.42917
▁leave	-8.43313
のよ	-8.43581
られる	-8.43775
▁kind	-8.4389
▁O	-8.43948
▁だが	-8.44097
▁dead	-8.44289
▁K	-8.44409
▁いい	-8.45206
▁私	-8.45357
▁Then	-8.45564
気	-8.4585
▁world	-8.45886
li	-8.46097
される	-8.46157
ra	-8.46226
▁Did	-8.46445
ne	-8.46561
カ	-8.46669
もの	-8.46784
▁Good	-8.46785
▁left	-8.46794
▁lot	-8.46866
▁own	-8.46912
P	-8.47114
回	-8.47257
ment	-8.47439
▁T	-8.476
▁doesn	-8.47962
▁came	-8.47976
大	-8.48479
il	-8.48829
▁might	-8.49027
▁un	-8.49099
なんて	-8.49119
▁また	-8.49174
▁always	-8.49176
▁For	-8.49617
できる	-8.49647
▁wrong	-8.49761
▁feel	-8.50182
k	-8.50488
▁everything	-8.50504
▁まだ	-8.50721
フ	-8.5109
man	-8.51182
able	-8.51637
一	-8.51731
今	-8.52154
na	-8.5257
▁D	-8.52609
前に	-8.52896
▁every	-8.52976
より	-8.53133
言う	-8.53155
ですか	-8.53278
▁guys	-8.53658
▁understand	-8.53798
R	-8.54135
▁bad	-8.54216
▁stop	-8.54507
いて	-8.54543
▁house	-8.54556
▁hear	-8.54601
M	-8.5464
▁His	-8.54707
▁father	-8.54968
ce	-8.55122
to	-8.55321
▁P	-8.55358
▁G	-8.55382
だと	-8.55703
ate	-8.55982
シ	-8.56192
▁君の	-8.56242
w	-8.56305
▁だから	-8.56332
▁old	-8.56883
▁happened	-8.56931
として	-8.57139
▁彼の	-8.57221
ット	-8.57446
la	-8.57825
est	-8.57846
イ	-8.57869
▁money	-8.58142
け	-8.58266
▁coming	-8.58429
あ	-8.5861
▁shall	-8.58729
▁Thank	-8.58767
▁%1	-8.59133
em	-8.59149
▁hell	-8.59161
でしょ	-8.59186
いない	-8.59223
▁someone	-8.59364
/	-8.59624
▁being	-8.5966
手	-8.59741
かな	-8.59746
ta	-8.60068
ン	-8.60194
ty	-8.60408
力	-8.61034
▁wanted	-8.61098
▁great	-8.61457
ie	-8.61657
lo	-8.61753
te	-8.6181
方	-8.62071
4	-8.62772
▁killed	-8.62773
ir	-8.63236
ri	-8.63289
ウ	-8.63506
られた	-8.64016
f	-8.64072
ive	-8.64439
▁head	-8.64872
レ	-8.64878
▁ask	-8.64999
ジ	-8.6532
とは	-8.65519
▁another	-8.65936
▁あなたが	-8.6594
しろ	-8.66021
しない	-8.66038
▁f	-8.66059
▁looking	-8.66207
ように	-8.66242
ニ	-8.66818
is	-8.66908
時間	-8.67197
▁else	-8.6726
▁used	-8.67276
▁saw	-8.67297
ディ	-8.67453
度	-8.67548
コ	-8.6832
▁girl	-8.68338
チ	-8.68427
L	-8.68444
ter	-8.68507
▁fucking	-8.68644
▁show	-8.68837
▁remember	-8.68882
のために	-8.69088
B	-8.69146
と思う	-8.69386
せ	-8.69415
▁sir	-8.6947
キ	-8.69911
z	-8.69959
▁stay	-8.70064
何	-8.70172
▁enough	-8.7022
▁best	-8.70304
こ	-8.70502
▁Maybe	-8.70727
▁talking	-8.70731
▁Uh	-8.70827
でしょう	-8.70839
▁use	-8.71243
▁Be	-8.7126
▁friend	-8.71269
ってる	-8.71301
▁end	-8.71625
▁three	-8.71671
▁Re	-8.71677
▁Me	-8.71852
▁many	-8.71916
ことは	-8.72125
体	-8.72133
▁son	-8.7227
かれらは	-8.7232
にも	-8.72362
am	-8.72658
ting	-8.72686
▁E	-8.7278
▁本当に	-8.72793
▁uh	-8.73219
オ	-8.73282
てる	-8.73357
▁care	-8.73683
5	-8.73953
▁went	-8.74191
▁ええ	-8.74346
中	-8.74467
後	-8.74533
心	-8.74553
だな	-8.74729
▁same	-8.74781
▁これ	-8.74823
生	-8.74913
あなたがたは	-8.7545
id	-8.75661
N	-8.75776
▁あなた	-8.75879
▁trying	-8.75906
という	-8.76122
ック	-8.76433
プ	-8.76525
▁real	-8.76671
E	-8.76835
ではない	-8.76847
▁As	-8.77381
▁もし	-8.77558
用	-8.77571
人の	-8.77647
ター	-8.77668
▁wait	-8.77747
くれ	-8.778
F	-8.78061
本当に	-8.78123
op	-8.78155
▁men	-8.78174
▁took	-8.78237
ツ	-8.78324
ミ	-8.78335
グ	-8.7852
▁job	-8.78713
▁ちょっと	-8.78807
▁mind	-8.78821
▁isn	-8.7884
だから	-8.79031
▁family	-8.79122
います	-8.79193
▁One	-8.7926
何か	-8.79372
ティ	-8.79529
▁die	-8.79817
▁それが	-8.79844
ge	-8.79897
であろう	-8.79952
▁most	-8.80126
▁course	-8.80209
6	-8.80283
▁おい	-8.80297
▁yourself	-8.80415
やる	-8.80439
▁wasn	-8.80485
▁already	-8.8057
▁shit	-8.80571
▁彼が	-8.80594
ry	-8.80811
ダ	-8.80848
所	-8.80887
エ	-8.80955
んです	-8.80986
メ	-8.81125
ma	-8.81136
ity	-8.81153
ist	-8.81223
de	-8.81834
▁getting	-8.81869
行	-8.81989
▁Right	-8.82043
だが	-8.82364
▁それ	-8.82459
ul	-8.82795
▁みんな	-8.82944
▁Or	-8.83396
ine	-8.83399
▁turn	-8.83447
▁fine	-8.83518
▁next	-8.83674
▁knew	-8.83746
▁move	-8.83792
▁mother	-8.8382
▁ago	-8.84119
▁today	-8.84297
et	-8.84317
じゃ	-8.84362
それを	-8.8448
▁live	-8.84504
▁ア	-8.84533
良い	-8.84804
数	-8.84814
▁seen	-8.84823
▁hand	-8.85038
ia	-8.85051
▁idea	-8.8506
▁Because	-8.85123
▁room	-8.85242
れば	-8.85307
長	-8.85446
G	-8.85911
▁彼らは	-8.85925
しました	-8.86028
ol	-8.86057
▁どう	-8.86131
あなたの	-8.86142
む	-8.86369
私は	-8.86465
▁お前は	-8.86484
女	-8.86661
ent	-8.86808
バ	-8.87037
▁heard	-8.87105
リン	-8.87155
▁start	-8.87231
ません	-8.87246
ニー	-8.87475
▁bring	-8.87699
サ	-8.87972
▁Here	-8.88116
▁run	-8.88165
8	-8.88176
▁hard	-8.88191
▁Hi	-8.88255
名	-8.88353
▁while	-8.88364
▁big	-8.88799
たい	-8.88862
▁part	-8.88935
co	-8.89042
▁boy	-8.89153
▁matter	-8.89581
地	-8.89806
▁W	-8.9001
un	-8.90121
について	-8.90141
ad	-8.90419
奴	-8.90516
▁without	-8.90589
▁&	-8.90716
それ	-8.90922
▁yet	-8.91003
▁君が	-8.91069
at	-8.91191
▁con	-8.91455
vi	-8.91619
▁together	-8.91766
▁case	-8.9193
▁僕は	-8.92175
▁そんな	-8.92177
▁brother	-8.92316
▁Have	-8.92353
▁Ma	-8.927
者は	-8.92747
U	-8.92842
もう	-8.9287
かれ	-8.92876
▁M	-8.92936
▁under	-8.93146
私の	-8.93305
▁Wait	-8.93336
▁10	-8.93511
▁さあ	-8.93574
▁try	-8.9386
up	-8.9393
▁open	-8.94032
話	-8.94107
▁何を	-8.94123
ck	-8.94204
▁few	-8.9445
▁set	-8.94474
ted	-8.94674
・・	-8.94947
したい	-8.95171
人は	-8.95214
ow	-8.9551
▁彼	-8.95548
▁wanna	-8.95647
▁p	-8.95732
だって	-8.95737
っている	-8.95873
われは	-8.95913
ver	-8.96223
▁よし	-8.96451
▁morning	-8.96458
im	-8.96508
本	-8.96607
me	-8.96791
▁俺の	-8.96797
▁called	-8.96871
▁door	-8.97134
▁until	-8.97194
金	-8.97259
▁yeah	-8.97281
the	-8.97384
作	-8.97714
マン	-8.97731
as	-8.97863
事を	-8.97883
▁gone	-8.97918
への	-8.97968
間	-8.9798
▁face	-8.9812
上	-8.98122
じ	-8.98133
K	-8.98179
▁4	-8.98358
ず	-8.98378
do	-8.98656
考え	-8.98678
▁nice	-8.98808
▁phone	-8.9894
▁gotta	-8.9895
々	-8.98977
▁Our	-8.99023
ところ	-8.99027
▁5	-8.99156
道	-8.99202
どう	-8.99222
ies	-8.99292
ください	-8.99832
スト	-8.99864
▁wouldn	-8.99892
ご	-8.99953
▁sent	-9.00119
ance	-9.00128
不	-9.00245
no	-9.00266
かも	-9.00397
▁De	-9.00476
▁against	-9.00515
▁anyone	-9.00554
人間	-9.00669
できない	-9.01138
▁エ	-9.01174
▁lost	-9.01217
▁fuck	-9.01307
▁maybe	-9.0136
ち	-9.01379
▁safe	-9.01542
▁See	-9.01625
月	-9.01717
▁Lo	-9.0197
ている	-9.01971
▁Dr	-9.01984
様	-9.02049
家	-9.02071
()	-9.02085
かれは	-9.02106
るんだ	-9.02155
前	-9.02202
のに	-9.02287
▁far	-9.02641
バー	-9.02645
less	-9.02766
ビ	-9.02787
▁しかし	-9.03083
的な	-9.03311
ness	-9.03408
tion	-9.03448
▁whole	-9.03564
sh	-9.03632
ライ	-9.0364
▁days	-9.03757
通	-9.03859
um	-9.04014
▁co	-9.04026
▁meet	-9.04112
▁大	-9.04305
▁baby	-9.04423
▁guess	-9.04509
ガ	-9.04834
son	-9.04845
▁working	-9.05093
来た	-9.05182
7	-9.05296
▁truth	-9.0531
▁both	-9.05334
ラー	-9.05365
▁La	-9.05495
たら	-9.05649
合	-9.05727
はない	-9.05838
▁Sorry	-9.05904
▁saying	-9.06148
ネ	-9.06172
目	-9.06342
ant	-9.06388
be	-9.0641
▁hurt	-9.06423
▁Take	-9.06453
んで	-9.06479
▁wife	-9.06514
先	-9.06565
知ってる	-9.0664
▁gave	-9.06652
され	-9.06804
になった	-9.06855
▁hope	-9.07035
▁マ	-9.07179
▁ready	-9.07223
▁Ha	-9.07301
9	-9.07357
入	-9.07383
ハ	-9.07573
これ	-9.07689
ぜ	-9.077
▁俺が	-9.07816
▁alone	-9.07921
▁pretty	-9.07965
▁true	-9.07965
and	-9.07967
▁change	-9.08091
▁point	-9.08181
ーン	-9.08254
age	-9.08325
▁such	-9.08338
点	-9.08407
▁我々は	-9.08449
▁dis	-9.08497
無	-9.08563
あなた	-9.08617
▁problem	-9.08617
人が	-9.08755
▁パパ	-9.0878
シー	-9.08892
死	-9.08912
御	-9.08964
げ	-9.09051
▁person	-9.09196
▁clear	-9.09315
国	-9.09389
▁何も	-9.09462
性	-9.09467
していた	-9.09643
▁Tell	-9.10041
▁R	-9.10192
会	-9.10207
面	-9.1059
だけだ	-9.10685
▁death	-9.10844
ために	-9.10896
▁John	-9.11021
▁どうして	-9.1121
▁close	-9.11312
事は	-9.11341
pe	-9.11418
▁bit	-9.1147
ton	-9.11522
▁woman	-9.11639
自分の	-9.11692
▁each	-9.11786
▁ス	-9.11857
mp	-9.12346
ほど	-9.12347
ish	-9.12412
▁deal	-9.12447
男	-9.12481
ain	-9.12726
ラン	-9.12759
▁いいえ	-9.13124
▁はい	-9.13209
着	-9.13256
君	-9.13492
▁ママ	-9.1357
▁fire	-9.13662
的	-9.13976
させる	-9.14059
ling	-9.14118
イン	-9.14245
▁soon	-9.1431
per	-9.14375
▁俺	-9.14394
とか	-9.14481
こそ	-9.14522
▁trust	-9.1467
あなたは	-9.14722
▁play	-9.14735
ci	-9.14795
があった	-9.14815
られない	-9.14817
明	-9.14821
達	-9.1498
▁分かった	-9.15063
神	-9.15078
▁Of	-9.15123
わね	-9.15376
ボ	-9.15392
愛	-9.15531
▁こんな	-9.15532
▁myself	-9.15623
関係	-9.15703
▁ここで	-9.1577
ha	-9.15865
戦	-9.15906
▁since	-9.15907
▁どんな	-9.15967
▁school	-9.15997
ful	-9.16057
がない	-9.16147
でした	-9.16156
▁once	-9.16211
▁Like	-9.16351
しよう	-9.16437
してた	-9.16583
ster	-9.16695
アッラーは	-9.16699
口	-9.16735
▁listen	-9.16745
カー	-9.16766
ぶ	-9.16859
▁water	-9.16997
▁お前	-9.16997
外	-9.17043
▁kid	-9.17176
来て	-9.17186
▁also	-9.17194
来る	-9.17357
やった	-9.17367
を見	-9.17564
レン	-9.17806
▁もっと	-9.17865
▁friends	-9.18102
▁ありがとう	-9.18128
▁inside	-9.18182
なく	-9.18203
モ	-9.18373
リア	-9.1841
▁light	-9.18516
▁fight	-9.18547
ソン	-9.18572
ノ	-9.18692
そうだ	-9.18758
ことが	-9.18768
かれらの	-9.18812
▁誰も	-9.18888
▁speak	-9.18946
▁カ	-9.19033
V	-9.19055
▁number	-9.19067
▁君	-9.1918
▁じゃあ	-9.19221
▁Le	-9.19256
lu	-9.193
してくれ	-9.19415
sa	-9.19607
▁couldn	-9.19862
出来る	-9.20341
かれら	-9.20372
▁見	-9.20376
H	-9.20574
感じ	-9.20585
かい	-9.20755
テ	-9.2085
cu	-9.20917
通り	-9.20936
▁answer	-9.20969
ian	-9.21249
▁second	-9.21274
何を	-9.21306
▁between	-9.21491
ru	-9.21499
▁shot	-9.21599
法	-9.21654
ないわ	-9.21773
くる	-9.21947
場	-9.22008
ないと	-9.22228
▁earth	-9.22384
▁eyes	-9.22462
▁At	-9.22665
▁hands	-9.22673
私	-9.22841
der	-9.22848
軍	-9.22903
「	-9.22957
られ	-9.22999
▁誰か	-9.23013
▁power	-9.2304
よく	-9.23129
知らない	-9.23391
▁20	-9.23477
▁check	-9.23541
▁word	-9.23644
▁彼女の	-9.23716
車	-9.23774
▁haven	-9.23787
違う	-9.23875
▁happen	-9.24012
ため	-9.24089
▁minutes	-9.24171
mo	-9.24453
デ	-9.24796
W	-9.24823
パ	-9.24889
▁human	-9.24956
もし	-9.25216
ni	-9.2523
▁reason	-9.25274
これは	-9.25299
▁war	-9.25315
▁file	-9.25339
▁ハ	-9.25375
▁彼女	-9.25377
と言った	-9.25434
ゴ	-9.25484
▁hold	-9.25515
▁hit	-9.25529
▁means	-9.25533
▁actually	-9.25608
▁year	-9.2562
▁side	-9.25765
▁ここに	-9.25903
▁An	-9.25923
▁ma	-9.26117
mi	-9.26251
▁ex	-9.26297
必要	-9.26417
▁plan	-9.26497
▁question	-9.26511
意味	-9.26649
水	-9.26802
▁お前の	-9.27025
led	-9.27048
▁Give	-9.27064
悪	-9.27107
ous	-9.27299
それは	-9.27317
▁#	-9.27323
言って	-9.27329
10	-9.27352
▁rest	-9.27378
▁H	-9.27385
▁blood	-9.27709
発	-9.27767
▁ye	-9.27807
▁eat	-9.28049
ならば	-9.28148
やって	-9.28155
ここに	-9.28249
のように	-9.2835
部	-9.28387
go	-9.28463
音	-9.28468
▁business	-9.28474
▁line	-9.28512
▁chance	-9.28532
させ	-9.28574
かもしれない	-9.28699
▁Dad	-9.2874
▁i	-9.28852
れる	-9.28854
▁よく	-9.29098
▁Listen	-9.29152
0	-9.29361
▁pay	-9.29399
機	-9.29477
▁read	-9.29554
▁Hello	-9.29584
ロー	-9.29673
キー	-9.29769
▁behind	-9.29772
わよ	-9.29906
▁heart	-9.29909
▁save	-9.29956
の中に	-9.29985
彼の	-9.30012
▁Stop	-9.30012
しい	-9.30081
▁New	-9.30165
▁thinking	-9.30267
われ	-9.30325
知	-9.30474
▁police	-9.30513
ダー	-9.3054
▁upon	-9.3073
▁tonight	-9.30968
▁Will	-9.31019
▁asked	-9.31055
らない	-9.31106
▁high	-9.31248
▁オ	-9.31316
きた	-9.31394
▁大丈夫	-9.31433
場所	-9.31563
▁alive	-9.31672
色	-9.31767
何も	-9.31879
ho	-9.31926
▁game	-9.32132
▁違う	-9.32135
▁gun	-9.32152
解	-9.32257
あなたがたの	-9.32278
身	-9.32299
家族	-9.32344
まだ	-9.32429
ke	-9.32433
▁Ro	-9.32599
om	-9.32697
▁fear	-9.32783
ner	-9.32797
直	-9.32812
部屋	-9.32859
だわ	-9.32882
ard	-9.33053
▁free	-9.33178
▁OK	-9.33185
必ず	-9.33241
夜	-9.33275
にして	-9.3334
主	-9.33403
ap	-9.3341
ber	-9.33475
▁body	-9.33717
▁c	-9.3384
理由	-9.33876
▁Him	-9.33881
▁Say	-9.33894
話を	-9.33977
行く	-9.34011
顔	-9.34207
アン	-9.34226
あなたに	-9.34287
来	-9.34633
かった	-9.34676
無い	-9.3474
▁huh	-9.35027
▁late	-9.35029
▁having	-9.35083
傷	-9.35194
▁--	-9.35225
▁everyone	-9.35336
▁ご	-9.35414
▁6	-9.35462
員	-9.35469
ップ	-9.35616
ag	-9.35629
を見て	-9.35641
▁supposed	-9.35704
min	-9.35891
彼は	-9.36088
▁そうだ	-9.36104
になって	-9.36128
▁それを	-9.36135
nd	-9.36144
▁Ra	-9.36185
▁Mi	-9.36196
ary	-9.36226
▁私たちは	-9.36376
▁stuff	-9.36407
しか	-9.36518
ポ	-9.36627
▁taking	-9.36658
▁cut	-9.36713
と言う	-9.36763
時に	-9.36778
?"	-9.3695
dy	-9.37025
学	-9.37145
▁says	-9.37152
ザ	-9.37299
▁Nothing	-9.37322
▁walk	-9.37371
出す	-9.37374
助け	-9.3739
▁least	-9.37505
がいる	-9.3763
▁tomorrow	-9.37935
立	-9.38001
fi	-9.38225
見て	-9.38259
ga	-9.38383
化	-9.38412
なければ	-9.38498
語	-9.38517
内	-9.38696
空	-9.38774
▁book	-9.38811
▁protect	-9.38863
▁U	-9.38879
▁hours	-9.38893
▁他の	-9.39005
ドル	-9.39076
次	-9.39097
ピ	-9.39139
▁break	-9.39336
▁brought	-9.39363
家に	-9.39429
▁exactly	-9.39438
▁whatever	-9.39467
食	-9.39493
天	-9.39566
▁警察	-9.39703
▁Pa	-9.39745
▁これが	-9.39746
▁different	-9.39802
▁Ba	-9.39843
話す	-9.39904
▁wants	-9.39918
るの	-9.40062
ケ	-9.40156
he	-9.40175
同	-9.40211
私に	-9.40307
スター	-9.40398
ッド	-9.40405
パー	-9.4044
▁w	-9.40501
計画	-9.40524
命	-9.40553
▁po	-9.40614
▁died	-9.40627
▁彼女が	-9.40629
欲しい	-9.40651
取り	-9.40676
居	-9.4077
▁Tom	-9.40778
▁knows	-9.4082
▁able	-9.40875
▁それに	-9.40898
▁On	-9.40899
▁Ta	-9.4092
▁一緒に	-9.40942
▁どこ	-9.41003
▁$	-9.41011
あなたが	-9.41014
▁afraid	-9.41065
	-9.41109
▁worry	-9.41256
▁僕	-9.41296
▁皆	-9.41301
▁These	-9.41347
失	-9.41383
サー	-9.41433
かれらに	-9.41441
ど	-9.4152
▁given	-9.41528
▁wish	-9.41542
Y	-9.41556
tic	-9.41569
▁makes	-9.41669
▁pro	-9.41679
▁probably	-9.41831
▁thank	-9.42026
ka	-9.42033
船	-9.42101
によって	-9.42176
▁ship	-9.42213
よね	-9.42244
▁Al	-9.42288
アッラー	-9.42332
▁少し	-9.42359
下さい	-9.42372
▁ただ	-9.42406
▁send	-9.42504
▁follow	-9.42551
▁system	-9.42601
▁Mar	-9.42636
問題	-9.42703
みたい	-9.42709
@	-9.42732
Name	-9.42795
娘	-9.42827
ng	-9.42837
▁five	-9.42844
高	-9.42858
歳	-9.42926
ような	-9.43088
▁pre	-9.4313
理解	-9.43181
tor	-9.43232
動	-9.43263
に行く	-9.43306
▁ba	-9.43309
▁−	-9.43381
マー	-9.43412
▁drink	-9.43489
▁city	-9.43541
▁いつも	-9.43629
mb	-9.43642
とも	-9.43759
▁promise	-9.43794
犬	-9.43903
ran	-9.43907
こう	-9.43942
ビー	-9.43945
▁何が	-9.43972
▁tried	-9.43975
▁cannot	-9.44019
▁week	-9.4403
▁Sa	-9.44055
しています	-9.44073
gra	-9.44116
たくない	-9.44116
女性	-9.44202
消	-9.44265
▁自分の	-9.44267
▁dad	-9.44531
ので	-9.4469
▁report	-9.44765
▁Some	-9.44902
あなたがたに	-9.44914
線	-9.44952
ah	-9.44969
はず	-9.45038
見た	-9.45111
▁リ	-9.45223
ヤ	-9.45265
しく	-9.45528
▁まあ	-9.45532
死ぬ	-9.45539
すること	-9.45571
あなたがたが	-9.45582
▁story	-9.45706
▁making	-9.45895
ving	-9.45906
もない	-9.45919
▁St	-9.46008
we	-9.46054
▁早く	-9.46168
▁murder	-9.46177
▁children	-9.46224
▁moment	-9.46251
あなたがた	-9.46297
▁message	-9.4636
▁Z	-9.46363
da	-9.46368
▁happy	-9.46421
▁yes	-9.46616
ナー	-9.46628
▁私に	-9.46767
▁watch	-9.46788
ron	-9.46829
私が	-9.46832
び	-9.46846
だぞ	-9.47044
va	-9.4707
v	-9.47105
ウィ	-9.47116
und	-9.47158
act	-9.47171
行った	-9.47221
▁どうやって	-9.4727
▁誰が	-9.47348
▁V	-9.47491
▁With	-9.47517
ut	-9.47527
▁control	-9.47539
ac	-9.47622
▁young	-9.47626
分かる	-9.47651
そして	-9.47741
民	-9.4777
書	-9.47853
▁daughter	-9.48112
▁もちろん	-9.48207
罪	-9.48208
▁sleep	-9.48303
なる	-9.48402
▁ロ	-9.48427
▁今は	-9.48519
▁become	-9.4852
▁sister	-9.48523
▁彼を	-9.48615
bu	-9.48667
▁order	-9.48887
▁Co	-9.49145
▁secret	-9.49348
ba	-9.49387
者を	-9.49399
▁stand	-9.49484
▁though	-9.49519
聞いた	-9.49617
的に	-9.49706
場合	-9.49743
▁town	-9.49845
▁g	-9.49926
▁ジョン	-9.49996
ベ	-9.50199
起こ	-9.50203
んだよ	-9.50321
▁full	-9.50329
pi	-9.50352
end	-9.50387
放	-9.50472
▁mine	-9.50478
血	-9.50662
とき	-9.50695
頭	-9.50778
%	-9.50818
を持って	-9.50884
The	-9.50912
中に	-9.51017
セ	-9.51071
▁crazy	-9.5109
ものを	-9.51109
▁act	-9.5117
wa	-9.51241
ca	-9.51391
すると	-9.51394
▁わかった	-9.51421
と思った	-9.51485
父	-9.51689
重	-9.51692
足	-9.51694
one	-9.51705
にいる	-9.51774
ee	-9.51803
▁N	-9.51862
命令	-9.51866
一人	-9.51975
▁anymore	-9.52079
妻	-9.52086
探	-9.52128
なくて	-9.52255
▁ass	-9.52314
▁ここ	-9.52325
▁良い	-9.52325
bo	-9.5233
▁four	-9.52393
ny	-9.5243
▁あんた	-9.5244
ip	-9.52514
はずだ	-9.52698
ール	-9.52839
ated	-9.52858
名前	-9.52898
▁FBI	-9.53009
pp	-9.53085
▁looks	-9.53178
▁trouble	-9.53222
たの	-9.53222
ましょう	-9.53224
▁dog	-9.53255
人々	-9.53259
▁Thanks	-9.53349
▁minute	-9.53396
▁party	-9.53409
▁Fuck	-9.53456
正	-9.53476
ここ	-9.53485
▁Ah	-9.53516
▁Bo	-9.53564
悪い	-9.53597
▁Mo	-9.53715
強	-9.53738
▁comes	-9.53787
しなさい	-9.53817
▁Got	-9.53845
▁私を	-9.53905
▁ー	-9.53906
ring	-9.53945
有	-9.54026
▁clean	-9.5416
▁お願い	-9.54309
それで	-9.54353
▁beautiful	-9.54377
▁私も	-9.544
返	-9.54407
店	-9.54523
▁L	-9.54655
▁later	-9.54657
▁fact	-9.54723
▁land	-9.54745
▁一	-9.54763
あった	-9.5477
▁Man	-9.5477
▁drive	-9.54779
▁among	-9.54826
▁easy	-9.54887
▁とても	-9.54899
ig	-9.55069
▁half	-9.55108
電話	-9.55152
▁important	-9.55182
▁Which	-9.55253
出来ない	-9.55259
質問	-9.554
なんか	-9.5543
ick	-9.55443
▁lose	-9.55474
役	-9.5554
▁mo	-9.55599
のね	-9.55629
▁Day	-9.55647
▁Those	-9.55696
光	-9.55742
▁team	-9.5582
シャ	-9.55877
意	-9.55899
万	-9.55951
のこと	-9.5598
ial	-9.56015
▁新しい	-9.56034
ぐ	-9.561
▁ある	-9.56105
なし	-9.5626
oo	-9.56267
があります	-9.56321
kg	-9.56399
海	-9.56462
行き	-9.56781
▁return	-9.56838
したら	-9.56918
等	-9.56939
▁telling	-9.57147
,「	-9.5725
▁Excuse	-9.57326
かれらが	-9.5741
▁list	-9.57417
私を	-9.57555
▁child	-9.57619
of	-9.57621
▁started	-9.57634
▁running	-9.57638
はどう	-9.57639
したの	-9.57662
山	-9.57761
品	-9.57835
心配	-9.57947
定	-9.57985
大丈夫	-9.58036
▁comp	-9.58065
子供	-9.58067
▁information	-9.58084
事件	-9.58144
来い	-9.58264
にある	-9.58327
声	-9.58369
されて	-9.58431
を殺した	-9.58507
▁news	-9.58617
▁test	-9.58623
▁waiting	-9.58643
木	-9.58758
るわ	-9.58764
ph	-9.58766
してください	-9.58802
▁お前が	-9.58819
人びと	-9.58909
君の	-9.58933
▁whom	-9.59112
▁di	-9.59147
▁office	-9.59157
ep	-9.59253
そ	-9.59293
てくれ	-9.593
世界	-9.59371
断	-9.59431
▁こっち	-9.59478
po	-9.59479
させて	-9.5963
▁lead	-9.59646
▁hate	-9.59778
▁8	-9.598
誰	-9.59921
ちゃん	-9.59951
mon	-9.60001
▁/	-9.60132
人を	-9.60145
正しい	-9.60167
思い	-9.60215
残	-9.6027
彼を	-9.60308
取	-9.60355
全	-9.60373
▁今日	-9.60435
▁fun	-9.60688
▁quite	-9.60697
攻撃	-9.60752
pa	-9.60827
仕事	-9.60835
▁待って	-9.60837
rs	-9.6086
んじゃない	-9.60864
れた	-9.60929
▁Vi	-9.60986
▁mom	-9.61101
と同じ	-9.61146
out	-9.61212
つもり	-9.61212
渡	-9.61248
▁except	-9.61298
▁神	-9.61336
▁bar	-9.61432
ント	-9.61457
かしら	-9.61465
実	-9.61503
ab	-9.61508
好き	-9.61607
▁7	-9.61621
▁Na	-9.61656
▁front	-9.61685
▁ク	-9.61686
nt	-9.6174
,(	-9.61776
▁ここは	-9.61785
▁himself	-9.61788
母	-9.61814
▁僕の	-9.61821
べき	-9.61841
▁“	-9.6185
▁手	-9.61873
▁なに	-9.61887
急	-9.61903
PHP	-9.62004
▁これで	-9.62133
▁pick	-9.62189
同じ	-9.6219
トン	-9.62294
決して	-9.62312
ぎ	-9.62324
理	-9.62408
▁lives	-9.62455
させた	-9.62478
fe	-9.6254
白	-9.62544
わたしは	-9.62568
▁touch	-9.62571
▁goes	-9.62573
▁outside	-9.62592
自由	-9.62628
▁buy	-9.6271
▁J	-9.62715
夫	-9.62746
方法	-9.62785
▁six	-9.62974
▁ほら	-9.63025
▁command	-9.63073
なきゃ	-9.63083
っと	-9.63235
を見た	-9.63269
▁couple	-9.6334
ating	-9.63438
アイ	-9.63491
▁すぐに	-9.6354
che	-9.63565
ki	-9.6365
▁誰	-9.63654
話した	-9.63765
するの	-9.63865
▁子供	-9.63888
座	-9.63914
事が	-9.6394
▁それから	-9.63962
服	-9.63962
▁Hold	-9.63983
▁sp	-9.64022
あり	-9.64034
のである	-9.6407
▁taken	-9.64192
結果	-9.64219
▁19	-9.64221
▁Sir	-9.64262
安全	-9.64324
よりも	-9.64331
que	-9.64381
知っている	-9.64385
▁バ	-9.64406
▁damn	-9.64459
出て	-9.64498
皆	-9.6451
▁つまり	-9.64532
博士	-9.64539
▁あ	-9.64602
るか	-9.64626
と一緒に	-9.64694
ファイル	-9.64694
les	-9.64736
ことに	-9.64764
▁Keep	-9.64782
▁見て	-9.64918
ob	-9.64922
▁Jack	-9.64932
王	-9.64993
など	-9.65003
▁何だ	-9.65178
▁Da	-9.65186
確認	-9.65335
番	-9.65574
▁pass	-9.65574
▁past	-9.65657
秘密	-9.65672
row	-9.65674
少し	-9.65678
ろう	-9.65754
手を	-9.65772
ass	-9.65818
元	-9.65864
ことだ	-9.65976
死んだ	-9.6598
なのか	-9.66157
仕事を	-9.66189
すれば	-9.66254
友人	-9.6637
親	-9.66374
▁ラ	-9.66388
許	-9.6639
▁ain	-9.66395
状況	-9.66406
最も	-9.66487
os	-9.66537
代	-9.66557
▁husband	-9.66652
▁Mom	-9.66739
time	-9.66743
火	-9.66813
▁Li	-9.66836
ble	-9.66863
▁イ	-9.66882
わたしたちは	-9.66911
モン	-9.66926
▁months	-9.66957
ler	-9.66987
嫌	-9.67024
▁Two	-9.67063
リスト	-9.671
▁fast	-9.6712
の中で	-9.67145
んですか	-9.67149
▁デ	-9.67161
ley	-9.67191
のため	-9.67214
記録	-9.67229
▁Put	-9.67279
▁ミ	-9.67372
▁May	-9.67413
▁本	-9.67427
お前	-9.67444
人生	-9.67515
ator	-9.67589
▁ド	-9.67614
あなたを	-9.67648
▁Jo	-9.6768
話して	-9.67787
ひ	-9.67834
▁times	-9.6786
▁somebody	-9.67891
業	-9.68036
ex	-9.68198
チーム	-9.68225
▁Her	-9.68286
ること	-9.68298
流	-9.68379
▁almost	-9.68392
▁doctor	-9.68475
されている	-9.6862
▁Even	-9.68643
引	-9.68655
ると	-9.68688
生き	-9.688
▁Could	-9.68894
▁indeed	-9.68897
あの	-9.68926
以上	-9.69003
敵	-9.69033
vo	-9.69038
言葉	-9.69109
▁sound	-9.69206
▁Um	-9.69262
ジー	-9.69273
ソ	-9.69277
アー	-9.69281
▁bitch	-9.69314
ですね	-9.69513
例	-9.69576
ff	-9.69627
▁Ar	-9.6969
▁本当	-9.69805
▁evil	-9.69823
▁Help	-9.69862
ペ	-9.69952
ギ	-9.69978
▁ca	-9.70091
選択	-9.70136
たち	-9.7017
▁others	-9.7017
▁met	-9.70176
いく	-9.70258
▁ran	-9.70276
▁attack	-9.70283
▁そうか	-9.70297
▁いいか	-9.70314
▁いつ	-9.70372
▁train	-9.70406
▁possible	-9.70418
たんだ	-9.70486
知らせ	-9.70496
▁company	-9.70589
だね	-9.70604
わかる	-9.70632
▁either	-9.7076
▁kids	-9.70814
立ち	-9.70868
してない	-9.70877
ld	-9.70931
▁country	-9.71029
ite	-9.71149
変	-9.71199
屋	-9.71202
▁women	-9.71274
ten	-9.71345
歌	-9.7136
▁サ	-9.71416
捜査	-9.71441
ばかり	-9.71533
システム	-9.71533
自	-9.71606
つか	-9.71681
▁million	-9.71705
▁bo	-9.71787
▁turned	-9.71809
ねえ	-9.71914
一緒に	-9.71995
進	-9.72017
人に	-9.72036
せる	-9.72091
破	-9.72182
▁Any	-9.72207
死んで	-9.72246
▁Sam	-9.72257
ブラ	-9.72293
話し	-9.72422
tter	-9.72519
ally	-9.72528
であり	-9.72567
連れて	-9.72576
楽	-9.72598
str	-9.72772
▁sign	-9.7279
感	-9.7289
ration	-9.72943
ますか	-9.72985
▁sit	-9.73004
▁Po	-9.73032
▁Ho	-9.7313
生活	-9.7314
行け	-9.73188
▁building	-9.73189
▁全部	-9.7338
ミー	-9.73425
者の	-9.73448
別	-9.73487
言	-9.73545
▁shoot	-9.73582
▁Su	-9.73603
▁known	-9.73713
▁food	-9.73714
引き	-9.7381
▁ten	-9.73819
運	-9.73856
広	-9.73888
考えて	-9.73921
▁cr	-9.73921
ach	-9.73945
やり	-9.74136
約束	-9.74144
▁shut	-9.74164
▁seems	-9.74203
▁meeting	-9.74243
ですよ	-9.74301
ありません	-9.74334
他の	-9.74345
つの	-9.74361
知る	-9.74378
▁sense	-9.74423
▁forget	-9.74477
▁mistake	-9.7451
彼	-9.74533
▁Stay	-9.74568
our	-9.74572
▁pa	-9.74637
lt	-9.74672
▁near	-9.74706
▁along	-9.74716
▁small	-9.74776
全部	-9.74777
▁明日	-9.74798
▁そこ	-9.74831
一つ	-9.74896
▁Would	-9.7496
バイ	-9.74979
のですか	-9.75003
要	-9.7502
▁うん	-9.75053
ize	-9.75115
ベル	-9.75186
退	-9.7522
’	-9.75222
▁Miss	-9.75247
どんな	-9.7528
▁nor	-9.75351
もっと	-9.75363
▁hour	-9.7539
▁–	-9.75418
当	-9.75448
di	-9.75566
tri	-9.75605
なり	-9.75673
▁sta	-9.75739
ッチ	-9.7574
える	-9.7579
way	-9.75797
▁かれらは	-9.75828
side	-9.75864
官	-9.7592
▁レ	-9.75966
薬	-9.75978
半	-9.75987
ak	-9.76019
のことを	-9.76041
形	-9.76059
ながら	-9.76084
▁どうぞ	-9.76087
gg	-9.7611
rate	-9.7615
誰か	-9.76247
使用	-9.7647
▁Jesus	-9.76483
フェ	-9.76486
▁ho	-9.76502
だけど	-9.76523
守	-9.76558
▁同じ	-9.76648
▁choice	-9.76665
アッラーの	-9.76792
▁piece	-9.76826
待って	-9.76832
J	-9.76852
相手	-9.76913
ence	-9.76976
▁たぶん	-9.77002
You	-9.77064
いや	-9.77096
X	-9.77113
者が	-9.77117
ward	-9.77166
反	-9.77193
論	-9.77194
▁After	-9.77211
わけ	-9.7726
▁black	-9.77306
▁Un	-9.77347
ice	-9.77357
情報	-9.77375
ことも	-9.77406
ger	-9.7741
コー	-9.77427
しても	-9.77441
さえ	-9.7745
▁living	-9.77493
▁他に	-9.77558
近	-9.77564
▁仕事	-9.77628
▁僕が	-9.77732
めて	-9.77744
害	-9.77843
成	-9.77865
ルー	-9.77998
止め	-9.78
ning	-9.781
言い	-9.78127
室	-9.78174
ちょっと	-9.78216
気に	-9.78257
からの	-9.78351
夢	-9.7836
息子	-9.78363
れない	-9.78395
▁key	-9.78408
シュ	-9.78421
▁Sp	-9.78671
見せ	-9.78691
▁cell	-9.78801
の間	-9.78804
▁figure	-9.78813
るな	-9.78846
ot	-9.78894
▁security	-9.7896
やれ	-9.79034
ものだ	-9.79064
▁ahead	-9.79111
▁Captain	-9.79146
は無い	-9.7921
We	-9.79301
懲罰	-9.7933
▁killer	-9.79458
帰って	-9.79571
20	-9.79598
▁bl	-9.79636
▁やめて	-9.79665
▁lo	-9.79681
野	-9.79704
light	-9.79715
であった	-9.79723
ure	-9.79733
▁step	-9.79798
▁これを	-9.7983
または	-9.80042
▁=	-9.80073
▁Ne	-9.80075
▁カー	-9.80144
▁parents	-9.80197
聞いて	-9.80248
移動	-9.80275
後に	-9.80328
▁Am	-9.80375
▁air	-9.8038
▁visit	-9.80459
bi	-9.8052
ハン	-9.80547
▁ずっと	-9.80572
▁worth	-9.80663
俺	-9.80688
load	-9.80716
ped	-9.80772
台	-9.80834
▁あと	-9.80884
if	-9.80942
▁Con	-9.81021
刑事	-9.81126
▁あれ	-9.81128
▁_	-9.81174
悪魔	-9.8119
いました	-9.81191
三	-9.81215
彼女	-9.81234
小	-9.81239
▁じゃ	-9.8124
▁9	-9.81292
居る	-9.81329
再	-9.81342
ほ	-9.81355
▁パ	-9.81492
▁crime	-9.81502
▁電話	-9.81509
▁aren	-9.81514
持ち	-9.81541
新しい	-9.81547
兄弟	-9.81598
仕	-9.81645
ようと	-9.81671
▁Th	-9.81815
▁eye	-9.8186
どこ	-9.81893
▁Move	-9.81958
▁needs	-9.82025
指	-9.82059
つけ	-9.82103
メール	-9.82109
▁star	-9.82121
熱	-9.82169
▁悪い	-9.82201
▁12	-9.82204
fa	-9.8221
俺の	-9.82232
▁では	-9.82233
▁Di	-9.82293
▁彼に	-9.82354
▁People	-9.82362
行動	-9.82383
早く	-9.82412
フィ	-9.82565
▁class	-9.82566
▁Agent	-9.82593
得	-9.82598
ens	-9.82636
先生	-9.82681
▁e	-9.82705
聞く	-9.82767
立て	-9.82811
▁window	-9.82851
▁cause	-9.829
▁Ca	-9.82992
▁By	-9.8311
に対して	-9.83117
設定	-9.83131
▁Was	-9.83155
印	-9.83157
▁date	-9.83212
▁account	-9.8323
信仰	-9.8336
公	-9.83401
▁dream	-9.83435
▁あなたに	-9.83462
▁law	-9.8361
land	-9.8361
▁everybody	-9.83619
▁sick	-9.83621
▁bed	-9.83682
ゲ	-9.83795
▁どこに	-9.83804
できた	-9.83805
▁家族	-9.83878
弾	-9.83908
▁Everything	-9.83911
州	-9.83911
▁offer	-9.83917
頃	-9.84008
▁asking	-9.84025
出した	-9.84047
00	-9.84162
ふ	-9.84183
持って	-9.84192
るのは	-9.84202
by	-9.84233
られて	-9.84377
▁Ga	-9.84413
ise	-9.84423
われが	-9.84455
ガー	-9.84538
▁30	-9.84583
ていた	-9.846
十分	-9.84605
状態	-9.84696
朝	-9.84759
ずっと	-9.84816
を殺す	-9.84941
ical	-9.84959
ay	-9.84986
▁やあ	-9.85003
背	-9.85072
捜査官	-9.8508
─	-9.85089
▁future	-9.8509
▁金	-9.85096
付け	-9.85139
行って	-9.8518
▁こちら	-9.85191
ようだ	-9.85194
ious	-9.85257
期	-9.85295
nc	-9.85392
ート	-9.85518
値	-9.8555
の事	-9.85582
人だ	-9.85602
▁コ	-9.85632
▁やめろ	-9.85664
んだろ	-9.85681
からだ	-9.85699
▁unto	-9.8575
鍵	-9.85783
▁待て	-9.8579
▁surely	-9.85799
ここで	-9.85812
▁soul	-9.85871
ition	-9.85932
者たち	-9.85933
レー	-9.85953
じゃないか	-9.85974
▁Something	-9.85982
▁catch	-9.86025
ec	-9.86096
べ	-9.86119
入れ	-9.86119
あります	-9.86129
すべて	-9.86176
星	-9.86179
誰も	-9.86258
▁Nice	-9.863
気が	-9.86321
▁そこに	-9.86346
ors	-9.86379
▁explain	-9.86382
▁evidence	-9.86482
にとって	-9.86556
聞き	-9.8658
間違い	-9.86593
ノー	-9.86658
▁feeling	-9.86688
▁created	-9.86733
▁lie	-9.86788
出る	-9.86955
現	-9.86962
病	-9.86989
▁あぁ	-9.8699
▁hey	-9.87048
▁miss	-9.87052
側	-9.87119
弟	-9.87181
ever	-9.87211
▁support	-9.87286
為に	-9.87303
▁Ex	-9.87361
▁sea	-9.87363
▁li	-9.87421
▁pull	-9.87433
アッラーが	-9.87439
shi	-9.87455
▁remain	-9.87488
▁charge	-9.87503
多くの	-9.87558
ヴィ	-9.87597
をする	-9.87605
の中	-9.87697
よい	-9.87746
tra	-9.87775
▁function	-9.87792
連絡	-9.87801
もある	-9.87833
ックス	-9.87892
▁気	-9.87939
▁すぐ	-9.88017
のです	-9.88128
野郎	-9.88139
しなかった	-9.88156
ze	-9.88176
友達	-9.8819
▁write	-9.88285
▁street	-9.88301
にする	-9.8831
▁win	-9.88368
会社	-9.88391
これを	-9.88417
▁我々の	-9.88429
ランド	-9.88462
hy	-9.88469
を見つけた	-9.88481
▁今日は	-9.88531
▁Sure	-9.88568
ub	-9.88612
チェ	-9.88617
▁imp	-9.88642
ワ	-9.88715
▁すべて	-9.88721
▁Only	-9.8873
line	-9.88766
▁count	-9.88799
協力	-9.88827
▁彼女を	-9.88839
もいい	-9.88879
パン	-9.88917
者に	-9.8895
いった	-9.89043
解決	-9.89093
eth	-9.89125
エル	-9.89179
▁en	-9.8919
平	-9.89278
▁using	-9.89282
▁learn	-9.89311
リス	-9.89449
▁無	-9.89476
ないで	-9.89481
写真	-9.89528
壁	-9.89532
▁ねえ	-9.89564
▁hospital	-9.89636
関数	-9.8964
ight	-9.89645
そこに	-9.89649
レイ	-9.89705
▁boys	-9.89711
▁happens	-9.89759
美	-9.89894
教え	-9.89907
表	-9.89974
▁boss	-9.89988
らしい	-9.90013
▁ground	-9.90055
▁Frank	-9.90058
警察	-9.90061
電	-9.90071
▁知ってる	-9.90157
寝	-9.90157
▁themselves	-9.90164
▁seem	-9.90239
▁車	-9.90276
▁sort	-9.90289
▁不	-9.90313
▁group	-9.90354
器	-9.90356
▁questions	-9.90399
バン	-9.90457
▁short	-9.90467
▁おまえ	-9.9048
一番	-9.90536
骨	-9.90567
▁stupid	-9.9057
▁machine	-9.90675
lin	-9.90707
▁何の	-9.90708
▁Ju	-9.90715
気分	-9.9074
かれの	-9.90759
▁Sha	-9.90847
事だ	-9.90885
▁Bu	-9.90955
信	-9.90966
るぞ	-9.90983
が必要だ	-9.91027
がいい	-9.91046
コン	-9.91062
▁タ	-9.91086
▁leaving	-9.91093
▁cover	-9.91121
▁hair	-9.91214
事故	-9.9122
殺した	-9.91236
売	-9.91243
みんな	-9.91269
▁なんで	-9.91301
▁15	-9.91367
みたいな	-9.91408
目を	-9.91459
):	-9.91459
町	-9.91475
▁cool	-9.91549
かれらを	-9.91551
最	-9.91605
▁top	-9.91627
▁v	-9.91645
ok	-9.91797
ile	-9.91814
島	-9.9183
良	-9.91875
ged	-9.91901
イス	-9.91913
▁luck	-9.91949
対	-9.91953
▁どうした	-9.92004
▁cold	-9.92065
▁bus	-9.92066
▁Shut	-9.92151
▁arm	-9.92168
収	-9.92194
▁Du	-9.92227
だけで	-9.92262
▁Open	-9.92264
首	-9.92276
▁longer	-9.92287
ロン	-9.92289
▁きっと	-9.923
しないで	-9.92301
雨	-9.92359
花	-9.9236
▁missing	-9.92384
隊	-9.92391
▁worked	-9.92396
▁彼女に	-9.92406
▁Does	-9.92433
▁hot	-9.92443
全て	-9.92445
▁From	-9.92472
方が	-9.92518
▁Jane	-9.9252
ear	-9.92526
金を	-9.92562
試	-9.92575
▁box	-9.9261
たくさん	-9.9262
hu	-9.92734
出せ	-9.9276
ワー	-9.92863
▁Make	-9.92909
ぼ	-9.92964
▁El	-9.92997
all	-9.93002
▁Te	-9.93028
安	-9.93044
いるの	-9.9312
fl	-9.93195
▁Ka	-9.93207
▁needed	-9.93285
▁special	-9.93321
位	-9.9337
ew	-9.93392
乗	-9.93473
きて	-9.93529
▁君に	-9.93561
の上に	-9.93562
▁join	-9.93644
時は	-9.93687
かけ	-9.93693
はある	-9.93698
示	-9.93765
したんだ	-9.93783
答え	-9.93834
▁Never	-9.93881
感謝	-9.93882
▁Show	-9.93915
cent	-9.93919
気持ち	-9.93933
める	-9.94032
において	-9.94174
間に	-9.94225
RE	-9.94298
▁家	-9.94321
▁200	-9.94334
視	-9.94357
たかった	-9.94438
▁agent	-9.94473
自身	-9.94495
▁Fa	-9.94515
仲間	-9.94589
るのか	-9.946
con	-9.94618
▁聞いて	-9.94619
置いて	-9.94715
馬	-9.94724
ないの	-9.94744
送	-9.94747
見る	-9.94773
▁ブ	-9.94814
▁contact	-9.94833
▁scared	-9.94877
cause	-9.94888
▁King	-9.94978
▁ごめんなさい	-9.94982
思う	-9.9506
▁moving	-9.95062
▁sh	-9.95074
んだけど	-9.95161
▁k	-9.952
▁出	-9.9526
men	-9.95297
50	-9.95333
▁address	-9.95379
▁record	-9.95405
っていた	-9.95462
▁数	-9.95463
ってた	-9.95494
▁あれは	-9.95544
▁hi	-9.95588
真実	-9.95596
▁strong	-9.956
▁glad	-9.9562
so	-9.95664
物を	-9.95677
は何	-9.95686
できません	-9.95718
▁誰かが	-9.9573
▁失礼	-9.95803
ang	-9.95812
▁Ja	-9.9583
▁bomb	-9.9594
▁track	-9.95945
▁息子	-9.95953
▁handle	-9.95971
ジェ	-9.95972
準備	-9.96057
▁sun	-9.96075
切	-9.96126
に就いて	-9.96138
▁dark	-9.9614
忘れ	-9.96162
▁人	-9.96182
▁girls	-9.96219
for	-9.9622
幸せ	-9.96248
▁faith	-9.96279
かれに	-9.96347
ade	-9.96436
使徒	-9.96552
をした	-9.9657
腕	-9.9659
▁dinner	-9.9659
ions	-9.96656
つく	-9.96682
みろ	-9.96704
▁Someone	-9.96714
wi	-9.96764
受け	-9.96801
▁road	-9.96815
io	-9.96839
実行	-9.96871
▁fall	-9.96927
▁Every	-9.96952
彼が	-9.97071
▁Peter	-9.97077
死に	-9.97135
cy	-9.97146
映画	-9.97147
ショー	-9.97229
殺	-9.97277
に来た	-9.97303
▁br	-9.97316
▁時間	-9.97325
権	-9.97354
▁Great	-9.97369
ねぇ	-9.97388
▁state	-9.974
▁Cha	-9.9741
ぁ	-9.97412
▁present	-9.97481
ING	-9.97559
▁バー	-9.97577
IN	-9.97604
▁la	-9.97688
配	-9.97895
スコ	-9.97919
ほしい	-9.9794
▁married	-9.98041
存在	-9.98074
ガン	-9.98115
▁何で	-9.98119
を与え	-9.98153
両親	-9.98157
ping	-9.98161
彼に	-9.98195
人で	-9.98215
腹	-9.98227
▁anybody	-9.98266
はならない	-9.98338
君は	-9.98433
▁sub	-9.98452
▁happening	-9.98501
▁station	-9.98513
こんな	-9.98551
ッシュ	-9.98553
肉	-9.98602
ダン	-9.98605
cl	-9.98611
銃	-9.98619
番号	-9.98671
すべき	-9.98688
ren	-9.98776
落ち	-9.9879
利	-9.98802
交	-9.98931
▁calling	-9.98946
離	-9.98972
q	-9.98996
ugh	-9.9901
▁*	-9.9904
問	-9.99048
▁Book	-9.99101
▁works	-9.99165
▁blow	-9.99169
▁Mm	-9.99264
▁suit	-9.99269
▁search	-9.99286
▁playing	-9.9934
een	-9.99394
くれる	-9.99419
方がいい	-9.9944
▁words	-9.99459
sha	-9.99489
式	-9.99592
ですが	-9.99601
30	-9.99615
全員	-9.99635
▁partner	-9.99656
ud	-9.99699
力を	-9.99722
▁saved	-9.99767
ier	-9.99772
▁行け	-9.99838
曲	-9.99856
▁ダ	-9.9987
逃げ	-9.99884
▁leg	-9.99885
食べ	-9.999
多	-9.99908
制	-9.99972
終わった	-9.99972
あなたがたを	-9.99984
den	-9.99997
▁serious	-10.0001
説明	-10.0005
酒	-10.0009
▁First	-10.0009
qui	-10.0016
しようと	-10.0016
捨て	-10.0023
gi	-10.0025
ized	-10.003
ey	-10.0032
▁いいわ	-10.0033
▁accident	-10.0043
ray	-10.0045
データ	-10.005
▁アー	-10.0055
▁自分	-10.0055
帰る	-10.006
ダメ	-10.0063
▁Pe	-10.0063
ものは	-10.0065
▁PHP	-10.0065
▁um	-10.0066
▁share	-10.0069
されてる	-10.0069
▁世界	-10.0069
ヒ	-10.007
風	-10.0074
千	-10.0078
教えてくれ	-10.0078
いつも	-10.0079
の為に	-10.0082
証拠	-10.0082
▁Whatever	-10.0085
報告	-10.0086
終わり	-10.0089
速	-10.0091
}	-10.0096
ris	-10.0099
▁add	-10.0101
すぎる	-10.0109
一度	-10.011
慈悲	-10.0124
を見る	-10.0128
▁sin	-10.013
警告	-10.0135
ake	-10.0135
るよ	-10.0137
*	-10.0137
やってる	-10.0139
言え	-10.0146
▁gets	-10.0146
▁match	-10.0147
▁looked	-10.0155
▁none	-10.0158
▁type	-10.016
好きな	-10.0168
病気	-10.017
▁throw	-10.0171
▁peace	-10.0183
▁Mary	-10.0183
▁month	-10.0186
dia	-10.0189
▁per	-10.019
逮捕	-10.0191
職	-10.0193
▁手を	-10.0194
▁shouldn	-10.0196
▁rain	-10.0201
キャ	-10.0202
息	-10.0202
▁path	-10.0208
▁0	-10.0217
▁Most	-10.0219
▁somewhere	-10.0219
今日	-10.0227
▁kept	-10.0229
▁weeks	-10.0229
と思って	-10.0232
rn	-10.0237
▁bag	-10.0239
するんだ	-10.0241
ざ	-10.0241
責任	-10.0242
くれた	-10.0245
失敗	-10.0249
▁Call	-10.025
▁card	-10.0253
する者	-10.0253
12	-10.0263
局	-10.0263
えて	-10.0265
mar	-10.0275
追	-10.0279
訳	-10.0285
▁ロー	-10.0288
ship	-10.0294
刑務所	-10.03
▁fault	-10.03
▁ホ	-10.03
いか	-10.0304
my	-10.0305
はどこ	-10.0306
限り	-10.0319
▁spend	-10.0319
調査	-10.0323
sec	-10.0323
▁奴は	-10.0333
ual	-10.0337
rk	-10.0345
▁Pro	-10.0349
するな	-10.0353
レス	-10.0353
▁camera	-10.0357
Cause	-10.036
▁mess	-10.0362
har	-10.0362
取引	-10.0369
ついて	-10.037
防	-10.0371
▁patient	-10.0371
てた	-10.0371
のような	-10.0379
選	-10.0379
だと思う	-10.0381
無し	-10.0382
階	-10.0382
とても	-10.0383
ありがとう	-10.039
出して	-10.0394
ブル	-10.0394
rc	-10.0397
わからない	-10.0397
殺された	-10.0398
戻る	-10.04
産	-10.0406
▁オー	-10.0408
信用	-10.0411
▁そうね	-10.0417
教	-10.0425
▁red	-10.0426
やつ	-10.0433
それが	-10.0436
チャー	-10.0439
われた	-10.044
▁till	-10.0441
▁私達	-10.0444
king	-10.0444
▁changed	-10.0445
▁Ri	-10.045
ign	-10.0451
▁yesterday	-10.0454
▁travel	-10.0454
の話	-10.0457
会った	-10.0458
▁Really	-10.0459
犯罪	-10.047
chi	-10.0481
できます	-10.0482
彼女は	-10.0485
本当にアッラーは	-10.0486
素	-10.0489
lie	-10.0496
▁そこで	-10.0499
してるの	-10.0501
▁cop	-10.0502
川	-10.0502
▁先	-10.0506
さない	-10.0514
種	-10.0514
用意	-10.0529
追い	-10.0533
氏	-10.0534
いません	-10.0538
ya	-10.0541
▁tree	-10.0541
▁ball	-10.0545
目的	-10.0546
文	-10.0549
地獄	-10.0551
ピー	-10.0559
んだろう	-10.0562
▁target	-10.0563
▁Bar	-10.0564
▁certainly	-10.057
救	-10.057
No	-10.0574
秒	-10.0575
ったら	-10.0584
教えて	-10.0584
▁ジェ	-10.0584
ジャー	-10.0586
トル	-10.0591
ないのか	-10.0598
▁image	-10.06
▁option	-10.0603
降	-10.0604
lic	-10.0607
女の子	-10.061
▁wonder	-10.0613
▁less	-10.0614
lan	-10.0626
▁god	-10.0633
▁バカ	-10.0634
▁sw	-10.0634
文字	-10.0636
▁access	-10.0636
と思います	-10.0636
抜け	-10.064
you	-10.0641
かどうか	-10.0645
兵	-10.0647
▁English	-10.0648
▁table	-10.0653
▁ダメ	-10.0657
監視	-10.0672
▁doubt	-10.0685
うち	-10.069
よかった	-10.0691
▁まず	-10.0695
聞け	-10.0698
情	-10.07
▁全て	-10.0701
tle	-10.0709
▁straight	-10.071
▁punishment	-10.0711
What	-10.0712
ide	-10.0717
▁wall	-10.0718
負	-10.072
▁weren	-10.0723
彼女の	-10.0733
晩	-10.0734
▁victim	-10.0736
バカ	-10.074
▁mu	-10.0745
▁私には	-10.0746
観	-10.0746
帰	-10.0748
▁program	-10.0759
▁force	-10.0778
au	-10.078
落	-10.0781
▁files	-10.0787
▁anyway	-10.0789
もなく	-10.0792
nk	-10.0796
▁felt	-10.0796
ホ	-10.0799
たちは	-10.0799
▁Shit	-10.0805
カメラ	-10.0808
チャンス	-10.0813
▁あなたを	-10.0816
非常に	-10.0818
▁funny	-10.0822
使	-10.0826
▁どうも	-10.0832
ゲーム	-10.0832
髪	-10.0833
されます	-10.0836
話は	-10.0837
好	-10.0839
西	-10.0846
ev	-10.0846
なのに	-10.0847
▁risk	-10.0847
kin	-10.0848
dic	-10.0852
からな	-10.0859
▁value	-10.0859
に行って	-10.0866
欲	-10.0869
▁Car	-10.087
hi	-10.087
知りたい	-10.0874
みたいだ	-10.0876
望み	-10.0889
社	-10.0891
▁thanks	-10.0891
▁drop	-10.0896
いで	-10.0896
:00	-10.0896
uck	-10.0896
出し	-10.0897
▁Wow	-10.09
▁すごい	-10.0901
走	-10.0903
念	-10.0907
▁seeing	-10.0907
ファ	-10.0908
▁thou	-10.0909
ink	-10.0909
出た	-10.0909
ロック	-10.0911
去	-10.0911
チャ	-10.0914
撃	-10.0914
信じ	-10.0917
士	-10.0919
▁bear	-10.0923
開	-10.0927
エン	-10.093
eg	-10.0933
装置	-10.0934
▁weird	-10.0935
uff	-10.0938
▁さて	-10.0939
He	-10.0942
ja	-10.0953
シン	-10.0957
▁オレ	-10.0958
▁ベ	-10.0959
〉	-10.0959
使い	-10.0962
▁シ	-10.0964
箱	-10.0971
▁Whoa	-10.0978
▁ごめん	-10.098
妹	-10.0984
▁respect	-10.0984
無駄	-10.0984
▁killing	-10.0984
導	-10.0987
被害者	-10.0994
▁pain	-10.0995
▁Detective	-10.0997
しないと	-10.0998
暴	-10.0998
▁マー	-10.1002
bb	-10.1006
客	-10.1009
言ってた	-10.1014
信頼	-10.1018
危険	-10.1019
▁我々	-10.1026
検	-10.1028
席	-10.103
ack	-10.1038
クレ	-10.104
▁大丈夫か	-10.1046
ina	-10.1048
▁Ti	-10.1054
ps	-10.1059
▁%2	-10.1062
▁computer	-10.1073
City	-10.1076
▁deep	-10.1078
ぬ	-10.1084
馬鹿	-10.1086
▁Hmm	-10.1086
▁inter	-10.1092
壊	-10.1096
▁government	-10.1099
くらい	-10.11
真	-10.1101
父親	-10.1107
石	-10.1111
▁position	-10.1111
ではありません	-10.1113
▁heavens	-10.1114
トリ	-10.112
▁〈	-10.1122
みる	-10.1123
困	-10.1124
すぐ	-10.1127
終	-10.1134
▁worse	-10.1137
ture	-10.1139
iv	-10.114
少年	-10.1143
▁lady	-10.1154
みたいに	-10.1156
▁expect	-10.1157
▁アン	-10.1162
魂	-10.1163
記憶	-10.1163
発見	-10.1166
街	-10.1166
▁finally	-10.1167
▁def	-10.1167
ないよ	-10.1168
くて	-10.1171
クラ	-10.1171
結	-10.1173
▁そんなこと	-10.1176
との	-10.1176
兄	-10.1178
運転	-10.1185
リング	-10.1186
路	-10.1187
ible	-10.119
所に	-10.119
▁ハイ	-10.1195
経	-10.1197
▁white	-10.1198
聖	-10.12
らせ	-10.1201
打ち	-10.1207
異	-10.1209
▁いえ	-10.1217
すぐに	-10.1223
先に	-10.1225
南	-10.1227
良かった	-10.1228
入り	-10.1229
連中	-10.1229
記	-10.124
▁caught	-10.1241
に対する	-10.1242
ging	-10.1244
ER	-10.1245
ug	-10.1249
強い	-10.1249
▁suspect	-10.1253
BAR	-10.1258
port	-10.1261
啓典	-10.1266
▁code	-10.1272
襲	-10.1277
▁ha	-10.1279
▁Ben	-10.1279
▁私達は	-10.1279
邪魔	-10.1279
変更	-10.1285
▁X	-10.1286
len	-10.1289
▁favor	-10.1292
▁American	-10.1293
ヴァ	-10.1297
なんです	-10.1304
▁今夜	-10.1305
ルド	-10.1307
▁beat	-10.1311
高い	-10.1314
▁こう	-10.1317
年間	-10.1317
▁Nobody	-10.1319
▁floor	-10.1319
▁fo	-10.1319
▁アル	-10.132
ディー	-10.1323
▁私たち	-10.1328
▁imagine	-10.1332
▁dangerous	-10.1332
量	-10.1332
▁Three	-10.1345
ue	-10.1348
恐れ	-10.1348
▁field	-10.1348
▁Very	-10.1351
カル	-10.1352
▁次の	-10.1359
味	-10.1359
▁50	-10.136
タン	-10.1361
▁perfect	-10.1363
戻	-10.1364
を取り	-10.1373
▁cat	-10.1377
カン	-10.1378
利用	-10.1388
スタ	-10.1389
調	-10.1394
裏	-10.1398
▁Everyone	-10.1398
認め	-10.1399
モー	-10.14
質	-10.1408
サイ	-10.1408
人物	-10.1409
ビン	-10.141
▁Red	-10.1411
パーティー	-10.1414
▁娘	-10.1418
▁reach	-10.142
spec	-10.1421
可能性	-10.1424
テン	-10.1425
勝	-10.1428
▁死	-10.1432
▁前	-10.1437
どこか	-10.1438
▁クソ	-10.1441
優	-10.1446
シェ	-10.1449
sen	-10.1452
▁flow	-10.1452
▁Last	-10.1454
▁これから	-10.1462
▁cross	-10.1463
▁君を	-10.1466
ザー	-10.1467
日本	-10.1471
▁俺たち	-10.1473
経験	-10.1477
切れ	-10.1488
AR	-10.149
森	-10.149
▁Messenger	-10.149
はい	-10.149
▁swear	-10.149
ook	-10.1492
▁signs	-10.1503
▁voice	-10.1503
▁bank	-10.1504
pl	-10.1511
はどこだ	-10.1511
合わせ	-10.1513
信者	-10.1515
▁Damn	-10.1517
▁水	-10.1518
▁モ	-10.1518
cha	-10.1524
ome	-10.1525
わない	-10.1528
▁York	-10.153
▁ウ	-10.1532
▁ボ	-10.1535
凡ての	-10.1536
ジョン	-10.154
真理	-10.1544
殺し	-10.1544
だったの	-10.1548
▁われは	-10.1551
▁draw	-10.1552
▁あら	-10.1554
従	-10.1556
▁lying	-10.1561
▁text	-10.1563
▁exp	-10.1566
許可	-10.1571
旅	-10.1578
▁愛	-10.1582
▁フ	-10.1585
▁心配	-10.1588
▁consider	-10.1588
▁single	-10.159
に対し	-10.1593
継	-10.1597
▁honest	-10.1597
キン	-10.1597
置	-10.16
ther	-10.1607
想	-10.1609
▁rather	-10.1611
▁Alex	-10.1612
戦い	-10.1613
▁seven	-10.1613
分からない	-10.162
犯	-10.1623
かね	-10.1623
耳	-10.1624
しかない	-10.1625
▁hide	-10.1626
av	-10.1633
ジュ	-10.1636
いなかった	-10.1637
▁difficult	-10.1637
▁worship	-10.1637
どちら	-10.1637
奪	-10.1645
オー	-10.1649
生きて	-10.165
まる	-10.1652
▁lab	-10.1656
▁外	-10.1664
クター	-10.1673
▁大丈夫だ	-10.1675
com	-10.1676
▁こいつ	-10.1678
▁early	-10.1678
二	-10.1689
▁そういう	-10.1691
脳	-10.1692
▁Watch	-10.1692
▁feet	-10.1692
▁変	-10.1702
迷	-10.1703
フォー	-10.1704
わかった	-10.1705
▁fair	-10.1706
週間	-10.1714
似	-10.1715
鳥	-10.1719
切り	-10.1727
込んで	-10.1728
どういう	-10.1735
約	-10.1745
▁mad	-10.1746
▁knowledge	-10.1746
知って	-10.1747
▁boat	-10.1749
▁俺に	-10.1754
mail	-10.1756
put	-10.1758
▁Wi	-10.1761
▁dear	-10.1761
▁guard	-10.1766
にした	-10.1771
▁result	-10.1773
cal	-10.1774
▁seat	-10.1777
借り	-10.178
▁俺達	-10.1787
ったの	-10.1787
▁music	-10.1789
目に	-10.1793
週	-10.1795
▁picture	-10.1796
.”	-10.1802
中の	-10.1803
▁certain	-10.1807
▁頭	-10.181
只	-10.1814
画像	-10.1815
するのは	-10.1816
▁paper	-10.1816
,000	-10.1817
cr	-10.1818
あって	-10.1823
事実	-10.1829
▁broke	-10.184
れて	-10.1842
美しい	-10.1843
コード	-10.1844
相	-10.1844
決	-10.1845
zz	-10.1847
▁元気	-10.1854
▁En	-10.1854
帰り	-10.1855
▁thousand	-10.1856
なのよ	-10.1859
護	-10.1869
洗	-10.187
▁smell	-10.187
▁Mike	-10.187
▁weapon	-10.1875
サン	-10.1878
▁color	-10.1878
減	-10.1884
▁smart	-10.1884
▁data	-10.1885
▁brain	-10.1885
行い	-10.1888
二人	-10.1892
60	-10.1893
gan	-10.1895
保護	-10.1898
無事	-10.1901
どれ	-10.1904
打	-10.1905
するわ	-10.1908
思った	-10.1919
務	-10.192
▁witness	-10.1921
▁enjoy	-10.1921
知り	-10.1925
▁watching	-10.1929
何が	-10.1929
ても	-10.1929
▁昨日	-10.1936
ステ	-10.1941
▁store	-10.1942
戦争	-10.1942
を使って	-10.1946
ただ	-10.1952
▁あいつ	-10.1956
告	-10.1958
オン	-10.1964
伝え	-10.1969
病院	-10.1969
それら	-10.1972
見つけた	-10.1973
ミス	-10.1974
▁prove	-10.1976
▁多分	-10.1981
じゃなかった	-10.1981
大学	-10.1985
古い	-10.1987
無かった	-10.1989
▁letter	-10.1989
▁確かに	-10.1992
▁奴ら	-10.1993
▁助けて	-10.1993
なければならない	-10.1994
▁anywhere	-10.1997
するために	-10.1998
ify	-10.1999
!"	-10.2006
▁Us	-10.2009
胸	-10.2009
▁scene	-10.2009
彼女を	-10.2009
想像	-10.2009
予定	-10.2009
ています	-10.2027
▁destroy	-10.2029
▁entire	-10.2029
笑	-10.203
▁やって	-10.2033
政府	-10.2034
>	-10.2037
▁mis	-10.2039
バス	-10.2039
合う	-10.2049
ホテル	-10.2054
考える	-10.2054
▁自分で	-10.2054
▁fool	-10.2056
cc	-10.2057
ければ	-10.2058
▁enter	-10.2063
事に	-10.2078
言ってる	-10.208
チョ	-10.2083
地上	-10.2084
▁prison	-10.2088
▁くそ	-10.2089
▁term	-10.2091
▁kidding	-10.2094
投げ	-10.2097
▁Che	-10.2099
▁level	-10.2099
特	-10.2101
▁ジャック	-10.2103
ヶ月	-10.2106
小さな	-10.2108
ネット	-10.2108
▁Christ	-10.2111
思って	-10.2114
だったら	-10.2116
片	-10.2122
ko	-10.2126
ってこと	-10.2126
▁Indeed	-10.2132
▁貴方	-10.2135
▁Mrs	-10.2136
車を	-10.2138
組	-10.2142
▁large	-10.2142
▁Back	-10.2142
すべての	-10.2144
伝	-10.2145
▁plane	-10.2146
▁友達	-10.2146
▁知らない	-10.2149
滅	-10.2153
▁Time	-10.2154
と言って	-10.2159
はしない	-10.2161
師	-10.2163
興味	-10.2164
▁それとも	-10.2172
何処	-10.2173
ことがある	-10.2173
能	-10.2177
東	-10.2178
超	-10.2178
弱	-10.2183
君が	-10.2186
難	-10.2189
▁across	-10.2193
のある	-10.2206
▁全	-10.2208
成功	-10.2213
団	-10.2219
書き	-10.222
そうと	-10.2221
▁str	-10.2222
やろう	-10.2226
と思ってる	-10.2231
▁Se	-10.2237
cho	-10.2248
呼び	-10.2248
管理	-10.225
重要な	-10.2255
▁accept	-10.2257
ο	-10.2264
爆弾	-10.2265
▁Fire	-10.2266
結婚	-10.227
号	-10.2271
まま	-10.2272
君に	-10.2272
工	-10.2278
道を	-10.2279
向こう	-10.2279
▁loved	-10.2283
▁ride	-10.2284
なった	-10.2284
bra	-10.2285
▁俺を	-10.229
確か	-10.23
わたし	-10.2301
そんな	-10.2304
移	-10.2306
に行った	-10.2307
▁About	-10.2308
ations	-10.2316
の方	-10.2316
心を	-10.2324
▁space	-10.2332
▁careful	-10.2334
▁銃	-10.2335
\	-10.2336
▁stick	-10.2337
天使	-10.2341
大きな	-10.2342
いつ	-10.2348
が必要	-10.2349
型	-10.2351
▁President	-10.2351
▁threat	-10.2351
▁art	-10.2355
▁上	-10.2355
▁サム	-10.2359
pos	-10.2364
▁Turn	-10.2366
▁Over	-10.237
day	-10.2372
してくれる	-10.2374
▁Joe	-10.2375
▁Huh	-10.2382
ということ	-10.2384
信じない	-10.2385
▁history	-10.2386
掛け	-10.2386
早	-10.2387
者である	-10.239
転	-10.2391
▁Welcome	-10.2395
▁全員	-10.2396
▁reward	-10.2397
せて	-10.2401
買	-10.2405
gree	-10.2408
寄	-10.2409
とこ	-10.2411
新	-10.2416
▁中	-10.2419
OR	-10.2425
銀行	-10.2426
▁stopped	-10.2427
▁exist	-10.2427
隠	-10.243
▁母	-10.243
があるの	-10.2431
いけ	-10.2433
をして	-10.2435
▁above	-10.2439
▁男	-10.2441
治	-10.2449
上の	-10.245
絵	-10.2453
▁giving	-10.2453
▁Mu	-10.2455
▁Walter	-10.2457
毒	-10.2462
かれが	-10.2462
▁magic	-10.2464
lock	-10.2466
期待	-10.2468
計	-10.2468
トラ	-10.2469
▁トムは	-10.2472
あんた	-10.2479
▁Gu	-10.2479
▁mark	-10.2481
前の	-10.2485
手に	-10.2485
▁Hell	-10.2487
思い出	-10.2489
殺人	-10.2491
未来	-10.2498
▁fish	-10.2503
を受け	-10.2503
▁テ	-10.2504
怖い	-10.2511
どうして	-10.2511
ムーサー	-10.2512
▁situation	-10.2512
上げ	-10.2513
je	-10.2513
加	-10.252
▁trip	-10.252
たわ	-10.2522
であられる	-10.2524
そうな	-10.2526
はまだ	-10.2528
集	-10.2532
時間を	-10.2535
出来	-10.2535
しましょう	-10.2535
圧	-10.2541
になり	-10.2543
▁彼らが	-10.2543
▁準備	-10.2551
art	-10.2553
ずに	-10.2553
▁Everybody	-10.2556
英語	-10.2556
保存	-10.2556
▁push	-10.2558
▁ジョー	-10.2562
▁Bye	-10.2563
▁100	-10.2568
▁彼らの	-10.257
▁あの子	-10.2571
横	-10.2571
▁during	-10.2572
ペン	-10.2573
▁頼む	-10.2574
分かった	-10.2579
殺す	-10.2579
ニュース	-10.258
▁hang	-10.2583
▁ここから	-10.2584
▁Y	-10.2584
▁quiet	-10.2586
▁なん	-10.2587
嘘	-10.259
行かない	-10.2592
▁Mark	-10.2595
ヘ	-10.2598
)。	-10.2598
▁別の	-10.26
▁forward	-10.2601
▁父さん	-10.2608
ヨ	-10.261
まれ	-10.2611
▁ビ	-10.2614
▁choose	-10.2616
表示	-10.2619
精神	-10.262
行こう	-10.2621
唯一の	-10.2627
画	-10.2645
▁出て	-10.2645
▁Check	-10.2647
休	-10.265
注意	-10.2651
ないんだ	-10.2658
▁lucky	-10.2659
▁女	-10.2659
▁coffee	-10.266
宇宙	-10.266
▁Nick	-10.2663
▁Use	-10.2664
イヤ	-10.2666
なぜ	-10.267
会って	-10.2671
500	-10.2673
▁busy	-10.2674
▁lock	-10.2675
▁study	-10.2676
のお	-10.268
止ま	-10.2684
▁やった	-10.269
逆	-10.269
んじゃ	-10.269
▁suggest	-10.269
▁mercy	-10.269
聴	-10.2692
▁わからない	-10.2694
してきた	-10.2695
覚えてる	-10.2697
百	-10.27
装	-10.2705
任	-10.2705
▁movie	-10.2706
チェック	-10.2707
ric	-10.2708
なよ	-10.2709
za	-10.2713
▁すみません	-10.2715
old	-10.2717
15	-10.272
▁service	-10.272
▁とにかく	-10.272
の仲間	-10.2725
ery	-10.2727
メッセージ	-10.2728
により	-10.2733
ついた	-10.2734
介	-10.2735
テスト	-10.2736
赤	-10.2737
かれを	-10.2737
犯人	-10.2743
ative	-10.2743
母親	-10.2744
リック	-10.2748
時間が	-10.275
もらう	-10.2752
込み	-10.2753
俺は	-10.2756
めた	-10.2758
ium	-10.2762
▁sweet	-10.2763
▁Gra	-10.2765
▁truck	-10.2766
土	-10.2769
"?	-10.277
続けて	-10.277
▁Ms	-10.2778
▁mouth	-10.2781
嬉しい	-10.2781
難しい	-10.2782
なこと	-10.2783
ろうと	-10.2784
に入る	-10.2792
▁サラ	-10.2792
▁takes	-10.2793
ドア	-10.2794
▁gl	-10.2796
思	-10.2798
はもう	-10.2802
▁personal	-10.2807
▁king	-10.2811
▁public	-10.2811
▁冗談	-10.2817
▁post	-10.2817
▁mission	-10.282
による	-10.2822
深	-10.2824
年の	-10.2825
顔を	-10.2825
したこと	-10.2828
知らなかった	-10.2835
始めた	-10.2837
▁within	-10.2841
お前の	-10.2844
どうした	-10.2851
込む	-10.2858
指定	-10.2858
use	-10.2861
▁welcome	-10.2872
▁honor	-10.2872
▁block	-10.2873
長い	-10.2873
向け	-10.2878
▁ジェーン	-10.2887
誰が	-10.2887
自分	-10.2888
▁Daddy	-10.289
いだ	-10.2891
It	-10.2891
▁ただの	-10.2897
ッカー	-10.2898
飲み	-10.2899
▁血	-10.2903
を見つけ	-10.2905
の名前は	-10.2905
すぎ	-10.2909
万ドル	-10.2914
▁逃げ	-10.2917
▁あんたは	-10.2918
門	-10.2918
▁object	-10.2919
▁sky	-10.2923
▁nobody	-10.2933
▁Ru	-10.2941
▁park	-10.2941
つき	-10.2942
戻った	-10.2943
▁allow	-10.2947
角	-10.2949
▁War	-10.2951
会う	-10.2952
▁quick	-10.2958
▁poor	-10.296
ft	-10.2961
茶	-10.2964
痛	-10.2967
を知ってる	-10.2968
ではなく	-10.2969
他	-10.2974
研究	-10.2985
善	-10.2992
フォ	-10.2994
▁honey	-10.2995
▁decided	-10.2997
▁normal	-10.2999
メン	-10.3
▁父	-10.3001
が好き	-10.3003
情報を	-10.3006
偉大な	-10.301
▁terrible	-10.301
hold	-10.303
していない	-10.3033
ませ	-10.3033
族	-10.3037
▁11	-10.3037
▁remind	-10.3042
要求	-10.3042
これらの	-10.3043
連	-10.3044
ju	-10.3045
しまった	-10.3049
▁pen	-10.305
じゃないわ	-10.3051
▁Should	-10.3057
name	-10.306
▁teach	-10.3065
▁meant	-10.3069
覚	-10.3071
▁age	-10.3072
▁contain	-10.3073
▁finger	-10.3073
ute	-10.3081
初めて	-10.3082
ことはない	-10.3084
にいた	-10.3087
▁judge	-10.3088
が無い	-10.3089
トラック	-10.3094
どうする	-10.3094
ities	-10.3098
▁app	-10.3105
▁eight	-10.3105
▁burn	-10.3108
完全に	-10.311
持	-10.3112
▁君たち	-10.3114
適	-10.3118
刺	-10.3119
最悪	-10.3121
が来る	-10.3121
▁素晴らしい	-10.3128
最後の	-10.3129
▁Looks	-10.313
端	-10.3135
家の	-10.3136
誰でも	-10.3136
▁grow	-10.3138
何と	-10.3142
▁最近	-10.3144
あれ	-10.3146
▁hearts	-10.3147
殴	-10.3151
接続	-10.3151
私達	-10.3154
lly	-10.3158
ッツ	-10.3162
▁わかってる	-10.3163
件	-10.3164
▁18	-10.3164
なくても	-10.3164
▁それだけ	-10.3166
グル	-10.3166
▁Leave	-10.3167
組織	-10.3167
年前	-10.317
ります	-10.3173
▁やる	-10.3174
かれた	-10.3175
者だ	-10.3175
て下さい	-10.3176
gue	-10.3177
偽	-10.3181
▁何があった	-10.3182
info	-10.3183
望む	-10.3183
▁考え	-10.3184
11	-10.3188
val	-10.319
作り	-10.319
lar	-10.3194
ple	-10.3195
▁wake	-10.32
待ち	-10.3209
▁fix	-10.3209
▁sounds	-10.3211
like	-10.3216
としても	-10.3216
るべき	-10.3218
▁sing	-10.3222
▁彼ら	-10.3227
▁Per	-10.3227
るであろう	-10.3227
するか	-10.3228
して下さい	-10.323
任務	-10.323
奴ら	-10.3235
▁Ki	-10.3238
の日	-10.3238
われる	-10.324
▁実際	-10.324
時代	-10.3243
雇	-10.3245
啓示	-10.3245
▁かなり	-10.3246
ai	-10.3255
せない	-10.3258
の時	-10.326
uc	-10.3266
▁Lu	-10.3266
ないか	-10.3272
鳴	-10.3277
▁Remember	-10.3277
飛び	-10.3278
▁river	-10.3278
▁paid	-10.3281
▁Out	-10.3283
▁agree	-10.3287
▁believers	-10.3287
ベッド	-10.3291
▁super	-10.3294
必要がある	-10.3295
クロ	-10.3296
▁missed	-10.3297
▁talked	-10.3299
倒	-10.3299
付	-10.33
忘れて	-10.3302
▁su	-10.3307
▁action	-10.3308
友	-10.3308
ける	-10.3309
▁horse	-10.3309
board	-10.3311
▁死んだ	-10.3312
があって	-10.3313
学校	-10.3313
治療	-10.3314
携帯	-10.3316
密	-10.3323
pla	-10.3325
▁ヘ	-10.3325
最高の	-10.3328
様に	-10.3331
からね	-10.3334
知ってた	-10.3334
乗り	-10.3334
▁enemy	-10.3341
ジャ	-10.3341
ング	-10.3343
連れ	-10.3344
ママ	-10.3345
rr	-10.3349
証明	-10.3351
クス	-10.3351
▁whoever	-10.3356
最初に	-10.3356
▁create	-10.3359
はありません	-10.336
▁following	-10.3364
受け入れ	-10.3364
重要	-10.3369
▁forever	-10.337
▁Pre	-10.3371
関係ない	-10.3373
習	-10.3373
▁device	-10.3373
ath	-10.3374
▁Think	-10.3374
▁seconds	-10.3376
▁officer	-10.3377
▁もう一度	-10.3381
▁bi	-10.3382
▁complete	-10.3382
ON	-10.3382
殺せ	-10.3385
歯	-10.3389
▁song	-10.339
見え	-10.3391
▁Try	-10.3399
▁president	-10.3405
爆発	-10.3406
sp	-10.3407
▁ディ	-10.341
ガス	-10.3412
脱	-10.3414
▁area	-10.3414
▁gold	-10.3414
常に	-10.3415
▁我々が	-10.3418
▁どうか	-10.342
▁Pi	-10.3421
▁すべての	-10.3428
▁ya	-10.343
▁finish	-10.3432
▁evening	-10.3432
▁wind	-10.3437
んでしょ	-10.3438
▁Actually	-10.3438
▁kick	-10.3439
さんは	-10.3444
▁アメリカ	-10.3445
▁sight	-10.345
くない	-10.3451
▁まさか	-10.3454
技術	-10.3454
と思ってた	-10.3461
▁俺も	-10.3467
ページ	-10.3469
姉	-10.347
▁ヘイ	-10.347
ker	-10.3476
▁teacher	-10.3482
▁sell	-10.3486
率	-10.3486
窓	-10.3486
▁ワ	-10.3489
抗	-10.3502
▁worried	-10.3503
スの	-10.3509
ここにいる	-10.3512
黒	-10.3514
▁どうしたの	-10.3515
▁hundred	-10.3519
▁jump	-10.3519
貴	-10.3521
▁ste	-10.3521
されない	-10.3522
過	-10.3531
おく	-10.3532
▁deserve	-10.3535
▁grand	-10.3535
ぐらい	-10.3535
▁Run	-10.3536
▁standing	-10.3538
▁ファイル	-10.3542
▁かれは	-10.3545
頼	-10.3559
起きて	-10.3561
患者	-10.3563
武器	-10.3566
あげる	-10.3567
欠	-10.3568
▁tired	-10.3568
▁failed	-10.3568
トー	-10.357
set	-10.3571
▁分かってる	-10.3582
▁妻	-10.3582
▁了解	-10.3584
▁taste	-10.3585
君を	-10.3589
cor	-10.3592
警官	-10.3596
能力	-10.3599
▁simple	-10.3601
▁video	-10.3601
が欲しい	-10.3606
▁whose	-10.3607
▁Fine	-10.3612
部分	-10.3613
撃つ	-10.3613
動物	-10.3617
▁neither	-10.3617
▁sometimes	-10.3617
努力	-10.3618
ail	-10.362
▁ダメだ	-10.362
▁often	-10.3621
▁current	-10.3626
デン	-10.3627
▁hat	-10.3628
狂	-10.3633
▁よかった	-10.3633
ji	-10.3637
▁unless	-10.3642
読み	-10.3643
でき	-10.3644
よな	-10.3646
スパイ	-10.3647
▁ring	-10.3649
出発	-10.3649
ham	-10.365
▁愛してる	-10.3651
スタン	-10.3651
▁どうする	-10.3659
散	-10.3666
男が	-10.3666
▁夜	-10.3671
任せ	-10.3671
未	-10.3674
▁dr	-10.3677
テレビ	-10.3683
べきだ	-10.3686
ブロ	-10.3688
ワン	-10.3698
わかって	-10.3698
何だ	-10.3699
key	-10.3699
傷つけ	-10.3702
▁Sta	-10.3703
▁gene	-10.3706
▁Tra	-10.3708
開け	-10.3712
穴	-10.3716
しかった	-10.3717
▁du	-10.3721
ませんでした	-10.3721
▁ジャ	-10.3729
応	-10.3732
各	-10.3733
ゾ	-10.3733
▁instead	-10.3733
▁whether	-10.3733
=	-10.3733
絶	-10.3736
▁ones	-10.3741
かせ	-10.3745
▁ハー	-10.3748
▁セ	-10.3748
礼	-10.3749
食事	-10.3749
軽	-10.375
▁More	-10.3754
始め	-10.3756
▁Tu	-10.3757
思わない	-10.3762
読	-10.3765
▁新	-10.3766
飲	-10.3767
追跡	-10.3767
裁判	-10.3767
▁ドア	-10.3767
と共に	-10.377
▁completely	-10.3774
▁arrest	-10.3778
▁ソ	-10.3783
▁wear	-10.3783
為	-10.3784
ロス	-10.3787
送り	-10.3788
▁continue	-10.3794
満	-10.3794
遠	-10.3794
▁Max	-10.3794
▁round	-10.3795
クリ	-10.3797
▁う	-10.3799
▁buddy	-10.38
言ってやるがいい	-10.3804
▁dance	-10.3804
RA	-10.3806
言いたい	-10.3807
▁Perhaps	-10.3817
押し	-10.3825
▁今まで	-10.3828
▁Fr	-10.3828
▁ill	-10.3832
dent	-10.3832
見える	-10.3833
があれば	-10.3834
変わった	-10.3834
▁Father	-10.3834
▁bird	-10.3835
信じて	-10.3839
牛	-10.385
▁Michael	-10.385
▁operation	-10.385
fr	-10.3851
▁人間	-10.3856
見えない	-10.3859
怒	-10.386
igh	-10.3866
うん	-10.3869
判	-10.387
▁page	-10.3879
みて	-10.388
▁hasn	-10.3881
獣	-10.3884
ゆ	-10.3884
▁えっ	-10.3885
名前を	-10.3886
カード	-10.3889
されました	-10.3892
▁ti	-10.3892
いいか	-10.3892
▁forgive	-10.39
▁lawyer	-10.3901
もん	-10.3905
▁え	-10.3915
してるんだ	-10.3918
▁gift	-10.3918
ries	-10.3919
▁後	-10.392
上に	-10.3922
証	-10.3922
▁harm	-10.3923
アル	-10.3924
▁今の	-10.3926
働いて	-10.3926
でね	-10.3929
▁promised	-10.3929
誘	-10.3935
▁decision	-10.3935
▁Henry	-10.3935
破壊	-10.3936
到着	-10.3936
▁Jim	-10.3937
fu	-10.3939
▁第	-10.394
▁cops	-10.3942
▁こんにちは	-10.3948
グラ	-10.3948
エイ	-10.395
造	-10.3951
至	-10.3952
▁error	-10.3954
▁spot	-10.3954
read	-10.3956
のない	-10.396
▁大統領	-10.3961
僕	-10.3963
▁court	-10.3969
▁deeds	-10.3972
▁believed	-10.3974
独	-10.398
過ぎ	-10.3982
▁fell	-10.3983
アッラーに	-10.3983
予	-10.3984
遅れ	-10.3985
らん	-10.3988
▁hotel	-10.3991
Do	-10.3992
▁わかる	-10.3993
面白い	-10.3995
▁問題	-10.3996
▁suppose	-10.3996
中で	-10.3996
飛行機	-10.4
昼	-10.4002
政	-10.4003
▁calm	-10.4006
▁spent	-10.4006
価値	-10.4011
▁助け	-10.4011
▁すまない	-10.4012
きました	-10.402
▁require	-10.402
創造	-10.402
▁connection	-10.4021
hmm	-10.4021
戻って	-10.4022
眠	-10.4027
cess	-10.4037
du	-10.4037
僕の	-10.4039
明日	-10.4039
▁feed	-10.404
動き	-10.404
主よ	-10.4045
しまう	-10.405
ose	-10.4056
ポー	-10.406
ケー	-10.4063
▁名前は	-10.4063
本当	-10.4066
少	-10.4066
彼女に	-10.4067
を引き	-10.4068
居た	-10.4069
▁White	-10.4072
音楽	-10.4074
マーク	-10.4074
net	-10.4076
オプション	-10.4089
勉強	-10.4089
結構	-10.4089
▁Kill	-10.409
▁ピーター	-10.4096
除	-10.4102
▁Ken	-10.4107
抱	-10.4122
▁Har	-10.4123
それに	-10.4123
知識	-10.4124
夕食	-10.4124
上手く	-10.4128
▁born	-10.4129
盗	-10.4131
ned	-10.4131
タイプ	-10.4131
イー	-10.4131
少女	-10.4133
▁experience	-10.4141
▁Has	-10.4143
ヤツ	-10.4146
▁fighting	-10.4146
▁hero	-10.415
パパ	-10.4154
右	-10.4158
	-10.4163
▁begin	-10.4166
▁rock	-10.4167
ties	-10.4168
やら	-10.417
えた	-10.4172
▁ペ	-10.4172
j	-10.4173
▁army	-10.4174
ワイ	-10.4182
▁self	-10.4184
▁行って	-10.4184
を持っている	-10.4187
かない	-10.419
遺	-10.4191
無理	-10.4191
わたしの	-10.4197
を使う	-10.4199
プログラム	-10.4211
▁bullet	-10.4211
証言	-10.4211
負け	-10.4211
▁Mon	-10.4215
変え	-10.4221
gar	-10.4225
原	-10.4225
完璧	-10.4228
なくなる	-10.4229
んな	-10.4231
構	-10.4232
han	-10.4235
▁その時	-10.4235
留	-10.4239
▁あなたも	-10.424
▁char	-10.4243
電話を	-10.4246
vis	-10.4251
でもない	-10.4252
▁named	-10.4254
▁Yo	-10.4255
りました	-10.4256
▁サン	-10.4256
どうなる	-10.4261
”	-10.4262
▁proud	-10.4264
住んで	-10.4265
てください	-10.4266
くなる	-10.4269
若い	-10.4271
取って	-10.4273
レット	-10.4278
酔	-10.4281
▁discuss	-10.4281
▁General	-10.4281
ski	-10.4282
▁まるで	-10.4283
住	-10.4286
の男	-10.4288
▁Up	-10.4288
▁Anything	-10.4298
▁trick	-10.4298
▁rep	-10.43
ラス	-10.43
共	-10.43
のみ	-10.43
▁キャ	-10.4301
ウェ	-10.4303
▁wearing	-10.4304
はっきり	-10.4312
プロ	-10.4312
▁client	-10.4316
影響	-10.4316
意見	-10.432
なって	-10.4324
セン	-10.4326
▁言って	-10.4327
外の	-10.4328
人と	-10.4328
▁passed	-10.4329
▁さぁ	-10.4334
ッカ	-10.4337
Z	-10.4338
▁miles	-10.4348
ib	-10.435
▁sex	-10.435
ホー	-10.435
グループ	-10.4351
場合は	-10.4351
はどうだ	-10.4352
現実	-10.4353
生きてる	-10.4356
get	-10.4358
続ける	-10.436
の手	-10.4361
▁実は	-10.4362
行為	-10.4364
▁クリス	-10.4364
ないように	-10.4369
考えた	-10.4371
自分を	-10.4371
楽しみ	-10.4374
orn	-10.4374
一つの	-10.4376
nce	-10.438
かかる	-10.4383
説	-10.4383
付き	-10.4385
▁appreciate	-10.4387
▁process	-10.4388
既に	-10.4388
▁Em	-10.4399
▁blame	-10.4405
何の	-10.4406
east	-10.4406
▁helped	-10.4407
▁敵	-10.441
っちゃ	-10.4411
▁Once	-10.4412
▁空	-10.4414
ient	-10.4416
剣	-10.4422
目の	-10.4429
外に	-10.4431
生まれ	-10.4434
状	-10.444
の民	-10.444
限	-10.4441
れてる	-10.4442
▁High	-10.4444
▁ジョ	-10.4444
導き	-10.4447
▁‐	-10.4447
ライト	-10.4449
ンズ	-10.4452
▁<	-10.4455
割	-10.4457
存	-10.4458
▁desire	-10.4458
分かって	-10.4466
感じる	-10.4468
low	-10.4471
iff	-10.4472
ism	-10.4473
迫	-10.4476
▁グ	-10.4478
▁昨夜	-10.4479
▁ぼく	-10.4482
▁deny	-10.4483
送って	-10.4486
容疑者	-10.4488
格	-10.4491
▁Prev	-10.4492
▁admit	-10.4494
ビル	-10.4498
▁books	-10.4498
現場	-10.4502
ドラ	-10.4509
▁form	-10.451
ヌ	-10.4512
▁private	-10.4512
まって	-10.4515
200	-10.4522
▁ボス	-10.4523
の事を	-10.4523
▁何でも	-10.4525
▁マイク	-10.4527
▁rid	-10.4528
▁became	-10.453
飲んで	-10.4539
改	-10.4548
▁battle	-10.4548
▁middle	-10.4548
▁memory	-10.4548
▁Queen	-10.4549
▁print	-10.4553
作戦	-10.456
義	-10.4567
▁二人	-10.4567
クソ	-10.4582
僕ら	-10.4583
のもの	-10.4583
▁嘘	-10.4586
rough	-10.4588
セット	-10.4592
▁broken	-10.4595
お願い	-10.4596
老	-10.46
日に	-10.46
pro	-10.46
在	-10.4602
▁最後の	-10.4602
希望	-10.4603
おかしい	-10.4603
の件	-10.4604
者には	-10.4606
の家	-10.4606
深い	-10.4608
旅行	-10.461
▁fit	-10.4615
医者	-10.4615
養	-10.4621
▁Earth	-10.4621
▁angry	-10.4621
▁君と	-10.4622
中だ	-10.4623
ジン	-10.4623
▁二	-10.4628
ST	-10.4632
は言った	-10.4633
▁names	-10.4634
亡	-10.4634
張	-10.4634
告げ	-10.4637
込んだ	-10.4638
非	-10.4638
位置	-10.464
▁port	-10.464
待つ	-10.4646
平気	-10.4646
現在	-10.4647
村	-10.4657
▁blue	-10.4658
jo	-10.4659
保	-10.466
お互い	-10.4661
cher	-10.4663
コール	-10.4668
▁lived	-10.4669
拒否	-10.467
自分で	-10.467
ファー	-10.467
▁Si	-10.4675
▁document	-10.4675
▁issue	-10.4678
ってくれ	-10.4678
▁island	-10.4679
▁何て	-10.468
▁あんたの	-10.4683
までは	-10.4685
▁da	-10.4687
▁guide	-10.4688
▁disbelieve	-10.4693
▁apartment	-10.4695
差し	-10.4697
その時	-10.4697
▁引き	-10.4699
全く	-10.47
▁TV	-10.4701
ニア	-10.4706
rank	-10.4706
▁Fe	-10.4707
個	-10.4707
私たち	-10.4708
▁wound	-10.4712
▁Black	-10.4713
▁Know	-10.4714
に向かって	-10.4719
▁low	-10.4728
程	-10.4729
余	-10.4729
来ない	-10.4732
ィ	-10.4733
ボー	-10.4736
パス	-10.4736
素晴らしい	-10.4739
▁belong	-10.4739
別の	-10.4739
▁size	-10.474
エラー	-10.475
▁dying	-10.4752
を見つける	-10.4752
▁今すぐ	-10.4753
▁finished	-10.4756
▁destroyed	-10.4759
キス	-10.4759
しません	-10.4761
▁press	-10.4763
苦し	-10.4764
俺が	-10.4765
明らかに	-10.4766
ドイツ	-10.4767
▁bought	-10.4767
vin	-10.4769
▁KDE	-10.4769
▁Grace	-10.477
ung	-10.477
▁view	-10.4772
wood	-10.4774
聞こえ	-10.4775
ID	-10.4775
▁dress	-10.4782
▁Isn	-10.4784
低	-10.4785
▁トム	-10.4785
▁gentlemen	-10.4786
靴	-10.4786
太陽	-10.4786
▁kiss	-10.4786
▁freak	-10.4786
▁strange	-10.4787
▁ちょっと待って	-10.4789
gen	-10.4793
わせ	-10.4794
title	-10.4799
▁‘	-10.48
▁forth	-10.48
列	-10.4801
つもりだ	-10.4804
原因	-10.4804
料理	-10.4805
ラム	-10.4805
命を	-10.4808
言えば	-10.4809
はいない	-10.4811
▁fly	-10.4812
ral	-10.4813
▁Moses	-10.4817
▁うまく	-10.4819
▁普通	-10.4822
▁pal	-10.4822
▁Ko	-10.4823
▁interesting	-10.4824
▁お父さん	-10.4825
アス	-10.4828
90	-10.4832
そうです	-10.4833
正直	-10.4841
〜	-10.4841
▁フランク	-10.4842
fully	-10.4847
▁Hu	-10.4849
さま	-10.4851
毎	-10.4857
ッグ	-10.4859
▁innocent	-10.486
▁example	-10.486
▁見た	-10.4861
script	-10.4861
サイズ	-10.4864
船長	-10.4865
なされる	-10.4869
を守る	-10.4872
▁David	-10.4879
支配	-10.4879
赤ちゃん	-10.488
の外	-10.4885
てきた	-10.4885
果	-10.4886
我	-10.4887
振り	-10.4888
入れて	-10.4889
恋	-10.4893
検査	-10.4898
魔法	-10.4898
▁sad	-10.49
かけた	-10.4903
必要な	-10.4908
▁それと	-10.4912
極	-10.4916
▁San	-10.4916
▁location	-10.4916
▁Add	-10.4918
▁im	-10.4925
▁ちゃんと	-10.4926
確	-10.4926
曜	-10.4927
▁copy	-10.4932
何でも	-10.4933
▁実	-10.4933
そこ	-10.4934
▁attention	-10.4935
▁holding	-10.4937
行か	-10.494
を持ってる	-10.4943
れている	-10.4953
順	-10.4953
▁そりゃ	-10.4954
lea	-10.4959
▁昔	-10.496
▁escape	-10.4967
っか	-10.4971
▁due	-10.4972
隣	-10.4973
▁Find	-10.4973
▁host	-10.4977
デイ	-10.4978
);	-10.4979
wise	-10.4981
▁rule	-10.4986
アナ	-10.4987
止めて	-10.4988
簡単	-10.4989
を授け	-10.4992
真実を	-10.4993
▁Paul	-10.4997
▁{	-10.4998
達は	-10.4999
▁彼と	-10.5004
があり	-10.5015
紙	-10.5019
可	-10.5028
部屋に	-10.503
反対	-10.503
プラ	-10.5031
バート	-10.5031
limit	-10.5031
▁Tri	-10.5032
命じ	-10.5033
▁rich	-10.5034
▁owe	-10.5036
▁qu	-10.5039
yo	-10.5043
知った	-10.5048
仮	-10.5048
Muhammad	-10.5048
▁Charlie	-10.5048
処理	-10.5049
楽しい	-10.505
ウィン	-10.5055
▁左	-10.5056
ことができる	-10.5056
but	-10.506
▁weapons	-10.506
こい	-10.5063
和	-10.5067
いるのか	-10.5068
▁seek	-10.5068
殺害	-10.5068
▁Phil	-10.5068
▁連絡	-10.5069
貰	-10.5071
▁master	-10.5071
寝て	-10.5072
ハイ	-10.5076
冷	-10.5081
▁bone	-10.5083
本を	-10.5085
▁CIA	-10.5086
起	-10.5086
判断	-10.5087
▁member	-10.5087
一人で	-10.5091
大丈夫だ	-10.5093
集め	-10.5093
ef	-10.5099
▁あなたと	-10.51
警備	-10.5105
良く	-10.5107
歩	-10.511
創	-10.5112
ためである	-10.5112
きます	-10.5113
後ろ	-10.5115
▁銃を	-10.5116
▁moved	-10.5119
僕は	-10.5121
でしょうか	-10.5122
者と	-10.5123
裁	-10.5124
▁amazing	-10.5124
▁slow	-10.5125
ショ	-10.5125
去った	-10.5126
LE	-10.5128
着いた	-10.5137
▁thee	-10.5137
ソー	-10.5137
▁どの	-10.5138
マジ	-10.5138
デート	-10.5141
▁落ち着け	-10.5144
感情	-10.5145
会い	-10.5145
▁board	-10.5146
▁cook	-10.5147
ユ	-10.5147
▁取り	-10.5151
ことになる	-10.5153
待ってる	-10.5154
▁interested	-10.5164
▁mention	-10.5168
立って	-10.5171
どこに	-10.5171
を与える	-10.5175
▁blind	-10.5182
▁sitting	-10.5186
▁死ぬ	-10.5188
▁Cat	-10.5191
の名前	-10.5192
折	-10.5201
メアリー	-10.5201
床	-10.5201
▁temp	-10.5203
けて	-10.5203
US	-10.5204
▁悪	-10.5208
▁log	-10.5211
われの	-10.5211
吸	-10.5213
どうぞ	-10.5214
止める	-10.5217
しているの	-10.5218
ウォー	-10.5219
辺	-10.522
完了	-10.5221
突然	-10.5221
込	-10.5221
するよ	-10.5225
多く	-10.5226
遠く	-10.5226
▁murdered	-10.5226
ュ	-10.5228
▁私たちの	-10.5229
になります	-10.5232
▁分かる	-10.524
まった	-10.5245
▁誰だ	-10.5251
lk	-10.5251
ock	-10.5256
をお	-10.5256
分かってる	-10.5258
のための	-10.5258
訓練	-10.5259
—	-10.5259
round	-10.5261
きっと	-10.5262
bit	-10.5266
▁roll	-10.5266
ピン	-10.5268
▁calls	-10.5268
は私	-10.527
やめて	-10.527
疑	-10.5271
北	-10.5272
触れ	-10.5274
たのか	-10.5274
ドン	-10.5275
中国	-10.5277
▁built	-10.5279
▁impossible	-10.5279
▁hurry	-10.5279
に入って	-10.5279
▁local	-10.528
どこにいる	-10.5281
いくら	-10.5287
▁setting	-10.5288
▁船	-10.5289
80	-10.5293
▁Ad	-10.5293
愚	-10.5298
二度と	-10.5299
▁Big	-10.5299
pper	-10.5299
▁foot	-10.53
ティー	-10.5301
ユーザ	-10.5305
何時	-10.531
▁Ni	-10.5312
▁あそこ	-10.5315
静	-10.5317
撮	-10.5318
▁先生	-10.5321
男は	-10.5321
▁警官	-10.5323
▁tu	-10.5324
は何も	-10.533
Q	-10.5335
争	-10.5335
▁今朝	-10.5336
案	-10.5336
永遠に	-10.5337
soever	-10.534
っぱ	-10.5342
ひとつ	-10.5344
▁Didn	-10.5346
聞きたい	-10.5347
あと	-10.535
統	-10.5356
フォルダ	-10.5357
わが	-10.536
んだな	-10.5361
▁involved	-10.5363
ロシア	-10.5364
▁その後	-10.5365
rry	-10.5369
▁difference	-10.5377
▁何故	-10.5378
殺される	-10.5379
世	-10.5379
してくれた	-10.5381
それから	-10.5389
何してる	-10.539
ified	-10.5391
▁treat	-10.5393
▁gu	-10.5394
▁America	-10.5395
▁criminal	-10.5396
▁tough	-10.54
おう	-10.5401
▁rules	-10.5402
我々の	-10.5403
ませんか	-10.5404
ファイルを	-10.5404
▁gate	-10.5405
スは	-10.5407
▁ヒ	-10.5409
。(	-10.541
だれ	-10.5413
座って	-10.5416
▁Still	-10.5416
▁oh	-10.5416
▁van	-10.5424
半分	-10.5425
っち	-10.5425
損	-10.5434
▁犯人	-10.5434
▁pleasure	-10.5435
なん	-10.5436
人生を	-10.5439
が悪い	-10.5443
察	-10.5444
19	-10.5445
どう思う	-10.5446
ちゃ	-10.545
マル	-10.5451
▁25	-10.5454
▁request	-10.5455
以前に	-10.546
br	-10.546
たいの	-10.5462
▁Too	-10.5464
最後	-10.5465
望	-10.5474
she	-10.5474
ov	-10.5475
▁excuse	-10.5475
せよ	-10.5475
頭を	-10.5481
▁Bra	-10.5485
向	-10.5485
▁キミ	-10.5486
んだぞ	-10.5488
苦	-10.5488
に来て	-10.5494
探し	-10.5502
いって	-10.5504
▁Bill	-10.5506
▁skin	-10.5508
▁分からない	-10.5511
停	-10.5515
セント	-10.5515
ウン	-10.5519
の後	-10.5519
取れ	-10.5519
clock	-10.552
言うこと	-10.552
▁signal	-10.5528
▁Ya	-10.553
勝手	-10.5531
let	-10.5532
起き	-10.5534
太	-10.5535
裂	-10.5535
猫	-10.5535
侵入	-10.5535
話せ	-10.5545
しますか	-10.555
演	-10.5553
登	-10.5555
積	-10.5555
▁どこで	-10.5557
マイル	-10.5561
近く	-10.5562
そこで	-10.5563
若	-10.5565
僕に	-10.557
▁ケ	-10.5573
闘	-10.5574
待て	-10.5575
であると	-10.5576
▁tea	-10.5577
使う	-10.5578
みた	-10.5578
場所を	-10.5578
に入れ	-10.5579
ようです	-10.5582
▁planet	-10.5583
▁もう少し	-10.5584
▁チャ	-10.5586
費	-10.5591
connect	-10.5593
せた	-10.5595
たく	-10.5597
を選択	-10.5597
残念だ	-10.5598
▁guns	-10.5598
▁聞いた	-10.56
事も	-10.5603
強く	-10.5615
思ってる	-10.5617
▁dude	-10.5617
らず	-10.5619
▁殺人	-10.562
▁gas	-10.5623
られている	-10.5626
持ってる	-10.5629
自ら	-10.5632
っていう	-10.5636
▁button	-10.5638
降り	-10.5638
いう	-10.5645
▁locked	-10.5646
言わない	-10.5646
ごと	-10.5647
スク	-10.5648
▁火	-10.5649
近い	-10.5651
▁reading	-10.5653
てない	-10.5655
▁knock	-10.5655
フィル	-10.5655
▁flight	-10.5659
については	-10.5663
▁ひどい	-10.5666
ME	-10.5668
gin	-10.5668
▁Hand	-10.5671
運命	-10.5673
魚	-10.5675
▁Somebody	-10.5675
▁clothes	-10.5675
兵士	-10.5676
▁prefer	-10.5677
▁aware	-10.5678
▁結婚	-10.568
助けて	-10.5681
▁あっ	-10.5684
ほとんど	-10.5685
▁ジェイ	-10.569
▁hath	-10.5691
求め	-10.5691
然	-10.5693
▁realize	-10.5695
▁行く	-10.5697
▁なあ	-10.5698
怒り	-10.5707
right	-10.5714
ix	-10.5715
▁returned	-10.5715
免	-10.5715
清	-10.5716
参加	-10.5716
閉じ	-10.5716
▁Alright	-10.5717
勢	-10.5718
LA	-10.5719
自殺	-10.5719
ou	-10.5721
▁City	-10.5724
action	-10.5727
ハー	-10.573
▁~	-10.5734
▁仲間	-10.574
くれないか	-10.5744
年に	-10.5745
▁王	-10.5746
▁その通り	-10.5748
左	-10.5748
じゃなくて	-10.575
大事な	-10.5756
▁third	-10.5756
彼らは	-10.5757
だし	-10.5762
▁hole	-10.5762
してます	-10.5762
▁Ser	-10.5765
▁server	-10.5767
覚えて	-10.5769
なんだよ	-10.5775
波	-10.5777
é	-10.5777
誘拐	-10.5777
▁guilty	-10.578
機会	-10.5783
own	-10.5791
▁40	-10.5792
ez	-10.5792
ああ	-10.5793
逃	-10.5794
▁Chi	-10.5795
▁《	-10.5795
▁deliver	-10.5796
罰	-10.5797
▁photo	-10.5797
▁Clear	-10.5797
▁James	-10.5797
なくなった	-10.5801
▁yourselves	-10.5802
色々	-10.5802
理由は	-10.5802
▁あんな	-10.5805
マシン	-10.5806
▁そ	-10.5806
▁Bring	-10.5807
▁Fl	-10.5812
互いに	-10.5813
▁無理	-10.5814
ku	-10.5815
list	-10.5816
▁French	-10.5818
有効	-10.5818
▁THE	-10.582
したのは	-10.5822
▁Their	-10.5824
▁comm	-10.5825
レベル	-10.5832
▁orders	-10.5832
▁Nor	-10.5832
▁bother	-10.5834
跡	-10.5837
参	-10.5838
悩	-10.5838
温	-10.5838
▁mate	-10.5838
仕事は	-10.5839
権利	-10.5839
ンド	-10.5843
聞こえる	-10.5846
んでる	-10.5847
▁Son	-10.5852
料	-10.5857
おめでとう	-10.5859
混乱	-10.5859
飲む	-10.5861
▁Sit	-10.5864
▁Master	-10.5865
大好き	-10.5866
ブラック	-10.5872
▁Surely	-10.5874
十	-10.5875
▁俺達は	-10.5878
▁行こう	-10.5878
▁lunch	-10.588
頂	-10.588
▁carry	-10.5893
踊	-10.59
▁pack	-10.5901
▁towards	-10.5904
住所	-10.5905
▁lay	-10.5905
部下	-10.5906
▁revealed	-10.591
ek	-10.5914
▁warm	-10.5914
▁いいぞ	-10.5914
となる	-10.5918
神々	-10.5918
バル	-10.5919
▁bro	-10.5919
▁rat	-10.5921
+	-10.5921
▁Mother	-10.5923
はその	-10.5923
▁小	-10.5925
ブルー	-10.5926
log	-10.5932
▁ベン	-10.5932
最大	-10.5933
▁言ってやるがいい	-10.5937
oke	-10.5937
70	-10.5938
調べ	-10.5939
与え	-10.5939
家を	-10.5941
元気	-10.5941
アクセス	-10.5942
▁club	-10.5942
施設	-10.5942
きれい	-10.5942
▁おはよう	-10.5942
勝利	-10.5942
▁interest	-10.5942
▁必要な	-10.5943
長く	-10.5943
▁File	-10.5947
みよう	-10.5958
取った	-10.5961
容	-10.5961
倍	-10.5962
省	-10.5962
検索	-10.5963
▁hungry	-10.5963
▁ourselves	-10.5964
クル	-10.5967
▁夢	-10.5974
cing	-10.5975
gent	-10.5978
初	-10.5979
ney	-10.5983
終了	-10.5983
▁最高	-10.5986
▁Stand	-10.5988
▁一体	-10.5989
ではないか	-10.5992
アリ	-10.5994
活動	-10.5995
場所に	-10.6001
のせいで	-10.6004
賞	-10.6004
が来た	-10.6004
のことは	-10.6014
▁figured	-10.6016
▁angels	-10.6023
刻	-10.6023
▁goddamn	-10.6025
▁secure	-10.6025
るように	-10.6026
るのを	-10.6027
男性	-10.6029
イル	-10.603
もらえ	-10.6033
自分自身	-10.6036
感謝する	-10.6036
▁build	-10.6045
EN	-10.6045
田	-10.6045
クルアーン	-10.6046
》	-10.6046
歴史	-10.6046
▁Sometimes	-10.6046
恐怖	-10.6046
▁Since	-10.6046
願	-10.6048
Yeah	-10.605
▁何だって	-10.6051
ari	-10.606
精	-10.6061
怖	-10.6061
▁decide	-10.6064
▁Set	-10.6064
ニス	-10.6065
▁damage	-10.6067
▁やぁ	-10.6067
ase	-10.6069
社会	-10.6072
▁weak	-10.6079
効	-10.608
▁元	-10.6085
被	-10.6087
契約	-10.6088
▁empty	-10.6088
▁condition	-10.6088
このように	-10.609
かけて	-10.6091
▁camp	-10.6091
フィールド	-10.6093
ときに	-10.6099
お願いします	-10.6099
ame	-10.6099
▁ウソ	-10.6101
▁cost	-10.6101
▁danger	-10.6108
▁relationship	-10.6109
の一部	-10.611
ロンドン	-10.611
▁Carrie	-10.611
親父	-10.6115
覚え	-10.6116
昔の	-10.6119
秘	-10.613
▁character	-10.613
▁hiding	-10.6131
遺体	-10.6132
いたら	-10.614
続	-10.6143
目が	-10.6145
アメリカ	-10.6145
ほうが	-10.6146
全ての	-10.615
以来	-10.6152
終わりだ	-10.6152
えば	-10.6156
信じる	-10.6156
ドー	-10.6157
を信じ	-10.6159
▁loss	-10.616
lay	-10.616
▁思い	-10.6161
ジョ	-10.6162
▁落ち着いて	-10.6163
▁いいや	-10.6163
時間は	-10.617
▁Han	-10.617
head	-10.6173
提供	-10.6173
▁collect	-10.6173
わたしたちの	-10.6177
手に入れた	-10.618
ゼ	-10.618
▁持って	-10.618
考えてる	-10.6182
▁Mor	-10.6183
姿	-10.6189
az	-10.619
下に	-10.619
And	-10.6192
威	-10.6194
それぞれ	-10.6194
一致	-10.6197
一杯	-10.6198
残り	-10.6198
所有	-10.6198
▁街	-10.6199
くなった	-10.62
を表示	-10.6201
▁全ての	-10.6202
▁急いで	-10.6203
▁leader	-10.6204
リンク	-10.6206
来てくれ	-10.6209
ane	-10.621
▁Oliver	-10.6215
▁price	-10.6215
機能	-10.6217
不明	-10.6217
――	-10.6222
無視	-10.6223
当て	-10.6223
press	-10.6224
全体	-10.6226
イカ	-10.6231
スキー	-10.6232
激	-10.6235
園	-10.6236
キュ	-10.6237
級	-10.6237
▁Japan	-10.6237
▁associate	-10.6237
▁purpose	-10.6237
▁Christmas	-10.6237
45	-10.6237
nel	-10.6238
ればいい	-10.6246
cle	-10.6247
確かに	-10.625
は私の	-10.6252
言われた	-10.6252
まして	-10.6256
オフィス	-10.6258
▁smoke	-10.6258
停止	-10.6258
後で	-10.6263
の上	-10.6263
にしろ	-10.6266
悪かった	-10.6273
両	-10.6275
類	-10.6276
たちが	-10.6276
▁suck	-10.6277
裏切	-10.6279
▁そっち	-10.628
▁ここの	-10.6282
▁14	-10.6286
男だ	-10.6288
▁user	-10.6294
物は	-10.6296
一緒	-10.6298
残念	-10.6299
▁birthday	-10.6301
▁レイ	-10.6302
bby	-10.6302
▁rec	-10.6302
面倒	-10.6303
やり方	-10.6303
▁closed	-10.6304
クラブ	-10.6307
だけです	-10.6308
▁YOU	-10.6308
我々は	-10.6309
▁Adam	-10.631
地下	-10.6311
避け	-10.6313
IS	-10.6315
▁ヤ	-10.6321
san	-10.6322
詳細	-10.6323
緊急	-10.6323
▁garden	-10.6323
見つかった	-10.6323
▁House	-10.6324
▁Before	-10.6324
それでも	-10.6326
事態	-10.6328
諸	-10.6329
40	-10.6331
▁Ok	-10.6331
▁最初の	-10.6337
▁Dis	-10.634
(),	-10.634
の仕事	-10.6341
いれば	-10.6342
▁24	-10.6343
虚	-10.6344
off	-10.6344
▁recognize	-10.6344
▁language	-10.6344
▁良かった	-10.6345
▁fail	-10.6346
したか	-10.6348
あるいは	-10.6348
ルート	-10.6352
付いて	-10.6353
続け	-10.6357
末	-10.6357
SE	-10.6362
心に	-10.6366
▁gather	-10.6366
▁ヤツ	-10.6366
▁Cor	-10.6367
▁女性	-10.6369
戻り	-10.637
つける	-10.6378
▁j	-10.6381
使え	-10.6382
科学	-10.6384
▁righteous	-10.6388
▁source	-10.6388
▁13	-10.6388
買った	-10.6395
学生	-10.6395
テロ	-10.6397
クラス	-10.6399
▁lies	-10.64
▁多くの	-10.64
▁戻って	-10.6402
できなかった	-10.6407
書いて	-10.6408
▁advice	-10.6409
こっち	-10.6411
▁tro	-10.6414
会議	-10.6416
入って	-10.6419
に過ぎない	-10.6419
古	-10.6421
休み	-10.6425
セル	-10.6427
麻薬	-10.6433
▁checked	-10.6434
▁hack	-10.6434
迎え	-10.6437
▁steal	-10.6439
▁母親	-10.6444
▁コン	-10.6444
▁証拠	-10.6444
▁wedding	-10.6444
なかったの	-10.6445
捕まえ	-10.645
▁investigation	-10.6453
gy	-10.6454
届	-10.6454
に関する	-10.6455
近くに	-10.6457
▁fat	-10.6458
子供たち	-10.6461
▁父親	-10.6463
don	-10.6464
▁thy	-10.6465
▁arrived	-10.6469
0,000	-10.6472
▁Ver	-10.6474
シア	-10.6479
同様	-10.648
▁Va	-10.6481
らせる	-10.6482
hin	-10.6488
bal	-10.6488
▁drug	-10.6489
際	-10.6495
節	-10.6497
▁trial	-10.6497
▁Sarah	-10.6499
Comment	-10.6499
いいんだ	-10.6501
言葉を	-10.6502
▁説明	-10.6502
▁Four	-10.6502
▁朝	-10.6507
well	-10.6507
サイン	-10.6508
▁Boy	-10.6513
陸	-10.6518
乱	-10.6518
～	-10.6519
▁definitely	-10.6519
スーツ	-10.652
down	-10.6521
イド	-10.6522
来たの	-10.6526
デー	-10.6529
dle	-10.6531
署	-10.6536
▁Five	-10.6536
▁お前を	-10.6537
▁apart	-10.6537
突	-10.654
▁verily	-10.6541
▁corner	-10.6541
報	-10.6542
決定	-10.6542
ith	-10.6544
♪	-10.6544
▁sur	-10.6545
加え	-10.6546
いるんだ	-10.6546
を確認	-10.6555
ヴ	-10.6557
▁moon	-10.6558
▁いま	-10.6558
づ	-10.6559
▁17	-10.6562
▁bastard	-10.6563
▁conversation	-10.6563
▁Next	-10.6563
直ぐ	-10.6565
の夜	-10.6569
▁答え	-10.6573
▁radio	-10.6574
▁おお	-10.6577
ァ	-10.6579
描	-10.6585
殿	-10.6585
映像	-10.6585
▁available	-10.6586
サポート	-10.6588
勇気	-10.6588
するのか	-10.6589
姿を	-10.659
建物	-10.6591
物だ	-10.6592
▁clo	-10.6598
▁次は	-10.6599
まい	-10.66
したのか	-10.6606
派	-10.6606
▁girlfriend	-10.6608
指示	-10.6608
解放	-10.661
▁par	-10.6615
▁そうです	-10.662
口を	-10.6625
俺を	-10.6625
▁急げ	-10.6629
▁correct	-10.663
くなって	-10.663
▁Select	-10.6632
▁learned	-10.6633
彼ら	-10.6634
嫌い	-10.6635
▁俺たちは	-10.6636
返し	-10.6638
バック	-10.6638
▁入って	-10.6643
form	-10.6647
▁para	-10.6648
▁whi	-10.6651
▁London	-10.6652
包	-10.6652
したくない	-10.6652
▁黙れ	-10.6652
来世	-10.6652
▁forgot	-10.6652
を返します	-10.6652
▁showed	-10.6655
▁usually	-10.6656
を持つ	-10.6659
▁DNA	-10.6664
食べる	-10.6667
▁sake	-10.6667
とり	-10.6671
▁surprise	-10.6672
大変	-10.6673
『	-10.6674
よろしく	-10.6674
▁monster	-10.6674
を変え	-10.6674
読んで	-10.6675
▁common	-10.6677
▁Holy	-10.6678
ないぞ	-10.6679
▁totally	-10.668
守って	-10.6683
てはならない	-10.6684
▁heaven	-10.6692
▁problems	-10.6694
▁strength	-10.6696
忙しい	-10.6697
▁suffer	-10.6697
痛み	-10.67
どうやって	-10.67
▁listening	-10.6705
大統領	-10.6707
▁%	-10.671
一人の	-10.6717
▁Fu	-10.6717
▁spirit	-10.6719
アルマン	-10.6721
ik	-10.6723
忘れた	-10.6724
すでに	-10.6725
▁notice	-10.6727
▁stole	-10.6733
ura	-10.6734
話が	-10.6734
特別	-10.6738
▁母さん	-10.674
策	-10.6741
ケイ	-10.6741
▁poison	-10.6741
▁Doctor	-10.6742
▁detective	-10.6742
会え	-10.6742
親切	-10.6743
▁pulled	-10.6745
隠し	-10.6746
アッラーを	-10.675
▁nu	-10.6753
▁そんな事	-10.6755
給	-10.6763
報奨	-10.6764
▁guidance	-10.6764
▁joke	-10.6765
▁assume	-10.6765
に戻る	-10.6771
を取って	-10.6771
歩いて	-10.6771
rie	-10.6775
▁私と	-10.6777
DE	-10.6779
▁右	-10.6781
らなかった	-10.6781
貴方	-10.6784
死体	-10.6785
恥	-10.6786
▁North	-10.679
つけた	-10.6793
の間に	-10.6798
いたい	-10.6802
入れる	-10.6803
時計	-10.6807
ティン	-10.6808
額	-10.6809
▁driving	-10.6809
煙	-10.6809
ability	-10.6809
テキスト	-10.6809
ビデオ	-10.6809
終わる	-10.681
を止め	-10.6812
に関して	-10.6812
いるか	-10.6813
の問題	-10.6813
おいで	-10.6813
▁cash	-10.6814
を見ろ	-10.6816
▁情報	-10.6817
TH	-10.6819
と一緒	-10.682
▁すごく	-10.682
aking	-10.6822
▁16	-10.6822
▁pur	-10.6822
▁ビル	-10.6826
ファン	-10.6828
oon	-10.6831
▁そんなに	-10.6832
▁beginning	-10.6832
反応	-10.6832
▁そいつ	-10.6833
▁surprised	-10.6833
ナイフ	-10.6833
▁Down	-10.6835
▁ミスター	-10.6837
僕を	-10.6837
意識	-10.6837
▁もういい	-10.6838
vol	-10.6845
can	-10.685
フラ	-10.685
盗んだ	-10.6852
恐らく	-10.6854
▁idiot	-10.6854
将来	-10.6855
御方	-10.6855
市	-10.6863
▁自分が	-10.6868
に従う	-10.687
お金	-10.6875
▁Mil	-10.6875
ony	-10.6877
一日	-10.6877
lf	-10.6878
▁==	-10.6878
▁guest	-10.6879
	-10.6883
SS	-10.6888
人類	-10.6889
print	-10.6893
うまく	-10.6896
ましょ	-10.6896
』	-10.69
政治	-10.69
over	-10.6901
起動	-10.6901
CH	-10.6903
▁north	-10.6903
▁followed	-10.691
▁walking	-10.6913
彼女が	-10.6913
の息子	-10.6914
言わ	-10.6916
▁あー	-10.6917
行かせ	-10.692
呼ぶ	-10.6921
▁drunk	-10.6923
沢山	-10.6923
▁Hurry	-10.6923
どういう意味	-10.6924
マイ	-10.6927
▁settle	-10.6932
▁Ge	-10.6932
まない	-10.6934
必要ない	-10.6934
AP	-10.6937
▁string	-10.6938
部隊	-10.6938
話したい	-10.6942
This	-10.6943
▁Japanese	-10.6946
▁focus	-10.6946
ダメだ	-10.6949
▁shop	-10.6949
▁行くぞ	-10.6949
おき	-10.695
▁どっち	-10.6951
ama	-10.6953
人達	-10.6959
女の	-10.696
▁一番	-10.6961
▁cla	-10.6961
開始	-10.6964
上で	-10.6964
もらった	-10.6965
▁beg	-10.6967
	-10.6969
人たち	-10.6971
kde	-10.6971
▁全く	-10.6972
▁equal	-10.6973
酷い	-10.6974
青	-10.6982
分け	-10.6984
戦う	-10.6986
▁学校	-10.6987
アップ	-10.6988
キング	-10.699
▁subject	-10.6992
▁crash	-10.6992
ちゃった	-10.6994
▁地球	-10.6994
流れ	-10.6994
代わりに	-10.6996
属	-10.6996
渡す	-10.6997
ロイ	-10.7
Fi	-10.7
▁4)	-10.7004
人も	-10.7005
フラン	-10.7009
▁tape	-10.7011
▁さっき	-10.7013
だろうな	-10.7013
▁trace	-10.7015
ライン	-10.7015
直接	-10.7016
銃を	-10.7017
▁starting	-10.7017
▁held	-10.7018
ニュー	-10.7022
ケン	-10.7026
▁初めて	-10.7029
▁success	-10.7034
▁pray	-10.7037
▁Ed	-10.7037
補	-10.7038
▁responsible	-10.7038
小さい	-10.7038
さらに	-10.704
るために	-10.704
話だ	-10.704
▁fan	-10.7043
▁だけど	-10.7046
▁whoa	-10.7052
可能	-10.7053
議	-10.7056
鉄	-10.7061
泳	-10.7061
▁approach	-10.7061
虫	-10.7061
▁favorite	-10.7062
したわ	-10.7062
弁護士	-10.7064
yn	-10.7065
▁Guys	-10.707
▁wonderful	-10.7072
ほうがいい	-10.7076
最初	-10.7077
いらない	-10.7077
▁therein	-10.7079
ゴー	-10.7082
罪を	-10.7082
▁crew	-10.7087
▁medical	-10.7087
名は	-10.7088
ビア	-10.709
ポール	-10.7093
▁keeping	-10.7094
▁大丈夫よ	-10.7098
▁信じられない	-10.7102
mark	-10.7105
別れ	-10.7106
固	-10.7107
▁taught	-10.711
生徒	-10.711
▁君も	-10.7111
始める	-10.7114
調べて	-10.7118
合い	-10.7119
ddy	-10.7122
生命	-10.7127
▁どうだ	-10.7128
させない	-10.7132
▁itself	-10.7133
黙	-10.7133
術	-10.7143
▁お金	-10.7143
▁Q	-10.7143
替え	-10.7145
▁お前に	-10.7148
フリー	-10.7153
握	-10.7155
強盗	-10.7156
満足	-10.7156
列車	-10.7157
yard	-10.7161
ション	-10.7164
が死んだ	-10.7168
集中	-10.7171
▁静かに	-10.7172
あるか	-10.7175
危険な	-10.7177
late	-10.7178
▁belongs	-10.7178
延	-10.7178
毛	-10.7178
▁green	-10.718
▁immediately	-10.718
▁prayer	-10.7182
うちに	-10.7184
の中の	-10.7184
ory	-10.7184
ボール	-10.7186
スー	-10.7187
▁危険	-10.7187
耐え	-10.7188
▁Je	-10.7189
▁注意	-10.7193
見てる	-10.7194
イラ	-10.7194
pri	-10.7199
院	-10.72
絶対	-10.72
袋	-10.7202
将軍	-10.7202
あなたの主	-10.7203
ひとり	-10.7206
▁herself	-10.7207
▁まったく	-10.721
してやる	-10.7212
▁Prophet	-10.7212
お金を	-10.7213
hor	-10.7214
図	-10.7222
接	-10.7223
▁main	-10.7225
▁stuck	-10.7226
▁marry	-10.7227
▁nation	-10.7231
おけ	-10.7231
必要はない	-10.7234
埋め	-10.724
頼む	-10.7243
AL	-10.7244
追加	-10.7245
ically	-10.7248
何度も	-10.7252
言うな	-10.7253
25	-10.7253
▁わし	-10.7256
▁北	-10.7257
現在の	-10.7262
▁大きな	-10.7264
カス	-10.7265
night	-10.7265
定め	-10.7266
▁final	-10.7266
上手	-10.7269
の主	-10.727
印を	-10.7272
サーバ	-10.7272
通りに	-10.7273
▁友人	-10.7273
楽しんで	-10.7273
▁double	-10.7273
場所は	-10.7273
逃げた	-10.7276
▁Dan	-10.7276
無く	-10.7276
教会	-10.7276
▁extra	-10.7282
▁いつか	-10.7286
謝	-10.7291
忘れる	-10.7295
時には	-10.7296
▁bodies	-10.7296
を失った	-10.7296
▁そうよ	-10.7299
の準備	-10.7299
▁map	-10.73
チン	-10.7303
特別な	-10.7304
▁Wh	-10.7308
▁約束	-10.7313
浮	-10.7314
大きい	-10.732
あげ	-10.7337
授け	-10.7338
▁speed	-10.7344
fic	-10.7346
しなければならない	-10.7346
▁proof	-10.7347
▁link	-10.7347
てくれる	-10.7348
安心	-10.7349
するため	-10.735
ないでくれ	-10.7355
▁ここにいる	-10.7358
▁良く	-10.736
方を	-10.7361
製	-10.7367
しかし	-10.7367
wide	-10.7368
▁earlier	-10.7368
美咲	-10.7368
の話を	-10.7368
写真を	-10.737
いたんだ	-10.737
▁pop	-10.7371
▁大変	-10.7374
▁やめ	-10.7375
▁drugs	-10.7377
▁言い	-10.7377
の方が	-10.7379
使った	-10.7387
▁received	-10.7387
聞	-10.7388
ゲイ	-10.7391
	-10.7392
▁necessary	-10.7392
▁duty	-10.7395
▁それなら	-10.7396
▁Ready	-10.7396
▁cry	-10.7397
▁tight	-10.7399
▁Six	-10.7399
身を	-10.74
するには	-10.7402
のまま	-10.7403
かす	-10.7403
ども	-10.741
イブ	-10.7413
100	-10.7415
▁helping	-10.7415
▁Verily	-10.7416
尽く	-10.7417
瞬間	-10.7419
▁ゲーム	-10.7423
back	-10.7424
▁レッド	-10.7424
離れて	-10.7424
りゃ	-10.7424
に電話	-10.7425
▁奴らは	-10.7425
隠れ	-10.7426
chan	-10.7426
なぁ	-10.7428
not	-10.7429
bye	-10.7429
かかって	-10.7431
出来た	-10.7433
あまり	-10.7435
▁selected	-10.7437
ございます	-10.7439
駅	-10.744
平和	-10.7441
無理だ	-10.7446
▁speaking	-10.7447
▁serve	-10.7452
は誰	-10.7455
▁brothers	-10.7462
▁warn	-10.7462
細	-10.7464
捜索	-10.7464
▁ticket	-10.7464
▁ジム	-10.7465
▁hoping	-10.7466
リース	-10.7467
ってきた	-10.7467
って言った	-10.7472
できて	-10.7473
区	-10.7474
rai	-10.7475
▁driver	-10.7478
▁ボク	-10.7478
18	-10.748
離れ	-10.7482
▁あんたが	-10.7482
▁project	-10.7488
▁wrote	-10.7488
および	-10.7489
▁hearing	-10.7493
▁もしもし	-10.7496
▁おそらく	-10.7497
car	-10.7501
▁site	-10.7503
▁base	-10.7504
たり	-10.7506
俺に	-10.7512
▁truly	-10.7513
相棒	-10.7513
担当	-10.7513
確信	-10.7513
▁Anyway	-10.7514
消えた	-10.7517
bin	-10.752
も無い	-10.7523
▁お母さん	-10.7525
次の	-10.7525
▁ファ	-10.7527
▁mode	-10.7529
ったんだ	-10.7529
通信	-10.753
▁父は	-10.7533
霊	-10.7537
次第	-10.7538
誕生日	-10.754
▁Del	-10.754
彼らを	-10.754
なくていい	-10.7544
ましたか	-10.7549
▁いいね	-10.7555
▁今度は	-10.7555
equ	-10.7557
かれる	-10.7558
っけ	-10.7558
▁pig	-10.756
稼	-10.7561
▁further	-10.7562
▁Trust	-10.7563
デル	-10.7564
▁unit	-10.7566
▁willing	-10.757
▁defend	-10.757
ならない	-10.7572
関	-10.7573
張り	-10.7574
▁こっちだ	-10.7574
ますよ	-10.7575
起きた	-10.7575
27	-10.7575
上げて	-10.7586
健康	-10.7586
可愛い	-10.7586
教授	-10.7586
▁provide	-10.7586
▁returns	-10.7601
正義	-10.7604
幸運	-10.7607
いてる	-10.7609
審	-10.761
いても	-10.761
▁Grand	-10.7612
普通	-10.7612
rge	-10.7612
▁Men	-10.7613
▁お前ら	-10.7613
▁だめ	-10.7616
行きたい	-10.7618
van	-10.762
▁keys	-10.7621
してはならない	-10.7633
調子	-10.7633
▁regard	-10.7636
隠す	-10.7636
place	-10.7638
▁nine	-10.7639
▁justice	-10.7645
▁Love	-10.7649
▁ここを	-10.7649
返す	-10.7655
富	-10.7659
▁dollars	-10.766
テーブル	-10.766
▁worst	-10.766
都市	-10.766
バレ	-10.766
主は	-10.7664
▁Val	-10.7665
物語	-10.7668
ele	-10.7669
するもの	-10.767
いけない	-10.767
ware	-10.7671
てしまった	-10.7671
不可能	-10.7672
▁少なくとも	-10.7673
▁後で	-10.7674
ye	-10.7675
▁cur	-10.7677
スカイ	-10.7677
の為	-10.7678
大地	-10.7682
▁黙って	-10.7684
課	-10.7684
▁まぁ	-10.7684
クリスマス	-10.7687
▁過去	-10.7689
▁特に	-10.769
わたしに	-10.7691
raw	-10.7691
▁plans	-10.7693
実際	-10.7694
▁cup	-10.7694
▁死体	-10.7697
▁誰にも	-10.7701
動作	-10.7704
決め	-10.7704
執	-10.7709
沈	-10.7709
▁reject	-10.7709
▁boyfriend	-10.7709
らす	-10.771
じゃなく	-10.771
work	-10.771
食べて	-10.7717
▁waste	-10.7717
仕事に	-10.7717
▁flu	-10.7718
とでも	-10.7719
何かあった	-10.7719
るのよ	-10.7721
脱出	-10.7721
▁プロ	-10.7725
投	-10.7726
▁tear	-10.7727
▁最後に	-10.7727
した時	-10.7728
ものである	-10.7731
わたしたち	-10.7734
▁Mmm	-10.7734
▁south	-10.7734
▁property	-10.7735
るのが	-10.7735
dec	-10.7737
女王	-10.7742
コピー	-10.7744
▁殺す	-10.7745
▁Pri	-10.7745
▁ニック	-10.7748
家で	-10.7753
▁ID	-10.7754
▁hall	-10.7754
車に	-10.7757
援助	-10.7759
ことで	-10.776
▁uncle	-10.7761
新聞	-10.7763
▁sword	-10.7763
▁あまり	-10.7765
▁liar	-10.7765
ダム	-10.7765
cket	-10.7767
大きく	-10.7769
▁Park	-10.7771
奴だ	-10.7771
fer	-10.7773
かの女	-10.7776
ency	-10.7777
証人	-10.7777
▁picked	-10.7779
わず	-10.778
ウィンドウ	-10.7784
系	-10.7784
我慢	-10.7784
▁desk	-10.7784
▁asshole	-10.7784
飛ば	-10.7784
市民	-10.7784
▁terrorist	-10.7785
にならない	-10.7785
アレ	-10.7787
pen	-10.7788
最初の	-10.7791
▁select	-10.7793
に会った	-10.7798
▁appear	-10.7799
はとても	-10.7804
荷物	-10.7804
ビール	-10.7805
これが	-10.7808
覆	-10.7808
騙	-10.7809
▁knife	-10.7809
試み	-10.7809
見えた	-10.7809
▁race	-10.781
なかったら	-10.7811
込め	-10.7811
▁planning	-10.7811
試合	-10.7813
だぜ	-10.7814
を受けた	-10.7816
そうだった	-10.7819
ong	-10.7821
win	-10.7824
凡てのもの	-10.7829
根	-10.7833
▁これ以上	-10.7833
があるんだ	-10.7833
▁beyond	-10.7834
避難	-10.7834
ky	-10.7837
▁quit	-10.7841
異常	-10.7842
警部	-10.7846
心の	-10.7846
やめ	-10.7848
隠して	-10.7853
▁Shaw	-10.7855
ache	-10.7855
も同じ	-10.7857
▁Cho	-10.7857
まり	-10.7858
を作る	-10.7858
児	-10.7859
▁George	-10.7859
いっぱい	-10.7859
楽園	-10.7859
house	-10.786
主に	-10.7867
悪く	-10.7867
オレ	-10.7872
▁grab	-10.7872
不信者	-10.7873
何なの	-10.7873
爆	-10.7882
何人	-10.7882
ナン	-10.7883
源	-10.7883
▁Martin	-10.7885
▁lied	-10.7886
▁confirm	-10.7887
同意	-10.7889
主の	-10.789
に来る	-10.7893
▁Start	-10.7897
テル	-10.7899
へ行く	-10.79
▁あなた達	-10.7902
▁Doesn	-10.7904
ものが	-10.7905
▁numbers	-10.7907
▁effect	-10.7907
▁farm	-10.7907
永	-10.7909
▁perhaps	-10.7909
▁きみ	-10.7911
壊れ	-10.7912
誓う	-10.7913
▁Carter	-10.7913
ルール	-10.7914
▁sleeping	-10.7914
だけよ	-10.7915
NT	-10.7917
ファイ	-10.7924
▁caused	-10.7924
許し	-10.7925
▁ちょうど	-10.7927
▁spoke	-10.7927
▁stone	-10.793
驚	-10.793
▁upset	-10.7932
lip	-10.7934
預言者	-10.7934
載	-10.7935
▁particular	-10.7935
▁writing	-10.7935
▁Ste	-10.7935
動か	-10.7937
方向	-10.7938
じゃん	-10.7938
▁Col	-10.7943
▁Had	-10.7944
16	-10.795
誰だ	-10.7951
▁CD	-10.7951
えない	-10.7952
ボート	-10.7952
遅	-10.7959
招	-10.796
▁ウォルター	-10.796
エンジン	-10.796
入った	-10.7964
なります	-10.7965
▁Carol	-10.7967
▁closer	-10.7967
▁Gri	-10.7968
▁wine	-10.7971
庭	-10.7975
ベー	-10.7976
▁絶対に	-10.7978
ミン	-10.798
ax	-10.798
▁raised	-10.7982
ねば	-10.7983
ルズ	-10.7985
標準	-10.7985
ヴェ	-10.7985
▁folder	-10.7986
回復	-10.7987
▁ニューヨーク	-10.7988
▁動くな	-10.7988
喜んで	-10.799
賢い	-10.7991
送った	-10.7992
▁コーヒー	-10.7994
様子	-10.8
field	-10.8004
▁ゆっくり	-10.8007
▁Hank	-10.8009
ちょうだい	-10.8011
▁Finch	-10.8011
距離	-10.8011
入る	-10.8011
を救う	-10.8012
しまい	-10.8013
▁我が	-10.8014
レル	-10.8016
▁別に	-10.8018
生きている	-10.8018
▁絶対	-10.802
▁heading	-10.8022
本物	-10.8022
▁laugh	-10.8023
▁Yu	-10.8026
短	-10.8026
を作成	-10.803
素敵な	-10.8031
▁servant	-10.8036
衆	-10.8036
▁recover	-10.8037
ドロ	-10.8037
逃げる	-10.8038
周り	-10.8039
触	-10.8041
box	-10.8043
払う	-10.8044
用の	-10.8047
doers	-10.8048
bar	-10.8052
俺たち	-10.8053
第	-10.8054
早い	-10.8056
られます	-10.8057
▁putting	-10.8058
過去	-10.8058
電話して	-10.8059
症	-10.8062
▁mankind	-10.8062
財産	-10.8062
▁losing	-10.8063
ウォーカー	-10.8063
切って	-10.8065
▁gotten	-10.8066
tory	-10.8067
cept	-10.8068
come	-10.8068
▁None	-10.807
▁皆さん	-10.8073
ily	-10.8075
起こった	-10.8078
ウッド	-10.8079
字	-10.8083
おいて	-10.8087
いてくれ	-10.8087
パーティ	-10.8089
心臓	-10.8089
▁くそっ	-10.8089
フィー	-10.8092
子供達	-10.8092
使って	-10.8094
るまで	-10.8094
ことは出来ない	-10.8098
デュ	-10.8099
▁quickly	-10.81
起こる	-10.8101
▁見つけ	-10.8102
されています	-10.8103
▁これまで	-10.8107
▁wondering	-10.8108
トイレ	-10.8114
▁film	-10.8115
▁bigger	-10.8117
ーション	-10.8127
▁trans	-10.8132
祈って	-10.8132
言わなかった	-10.8136
いいわ	-10.8136
▁credit	-10.8139
クト	-10.814
▁オーケー	-10.814
恐	-10.8141
ガキ	-10.8151
他に	-10.8154
望んで	-10.8154
▁しっかり	-10.816
タイ	-10.8163
▁staying	-10.8165
橋	-10.8165
▁eating	-10.8166
▁survive	-10.8167
▁mail	-10.8173
▁Anna	-10.8175
会いたい	-10.8181
だったんだ	-10.8181
ばれ	-10.8182
▁Ran	-10.8183
▁こいつは	-10.8186
を信じる	-10.8188
雪	-10.8191
▁apologize	-10.8191
▁こういう	-10.8192
with	-10.8192
やがて	-10.8192
▁Angel	-10.8193
▁Cam	-10.8193
居ない	-10.8197
AM	-10.82
▁聞いてくれ	-10.8203
▁trade	-10.8204
▁claim	-10.8204
書いた	-10.8211
▁戦争	-10.8212
▁avoid	-10.8218
責め	-10.8219
年前に	-10.8219
済み	-10.8219
いますか	-10.822
会話	-10.8221
▁そうだな	-10.8228
内部	-10.8229
間違って	-10.8232
汚	-10.8233
▁何とか	-10.8235
両方	-10.8239
届け	-10.8242
▁Er	-10.8247
▁plant	-10.8248
発生	-10.8251
▁demon	-10.8252
マリ	-10.8255
▁ほとんど	-10.8257
深く	-10.8265
▁Bro	-10.8265
▁punish	-10.8268
▁warning	-10.8269
▁Probably	-10.827
いろいろ	-10.827
▁market	-10.8272
に入った	-10.8276
立つ	-10.8276
▁version	-10.8278
ものです	-10.8279
守り	-10.828
押	-10.8282
本当にかれは	-10.8283
越	-10.8289
撃て	-10.829
科	-10.8295
艦	-10.8295
	-10.8296
奴隷	-10.8296
▁twice	-10.8296
ブリ	-10.8296
噂	-10.8296
天と地	-10.8296
▁Sounds	-10.8296
父さん	-10.8297
言えない	-10.83
arm	-10.8302
助	-10.8303
ボス	-10.8307
14	-10.8308
▁powerful	-10.8309
▁walked	-10.8312
は何だ	-10.8312
php	-10.8314
によると	-10.8316
▁records	-10.8316
なお	-10.8321
潜	-10.8321
▁speech	-10.8322
ナイ	-10.8323
▁queen	-10.8323
▁Save	-10.8324
ES	-10.8324
から離れ	-10.8325
▁Ten	-10.8333
▁見つけた	-10.8334
他人	-10.8336
賭け	-10.8339
確かめ	-10.8339
取る	-10.834
ash	-10.8343
の前で	-10.8344
管	-10.8348
ular	-10.8348
Yes	-10.8348
底	-10.8349
▁lord	-10.8349
目標	-10.8349
[	-10.8356
▁Must	-10.8357
にあった	-10.8358
▁座って	-10.8361
MA	-10.8362
知っていた	-10.8363
▁うちの	-10.8366
▁Chris	-10.8366
▁college	-10.8375
▁やっぱり	-10.8375
制御	-10.8378
遊	-10.8385
メッセージを	-10.8388
置き	-10.8389
▁タイ	-10.8391
みな	-10.8395
凡て	-10.8396
▁likely	-10.8397
フレ	-10.8398
家は	-10.8401
慎	-10.8401
▁research	-10.8402
行方不明	-10.8402
▁wild	-10.8402
verse	-10.8402
▁torment	-10.8402
かわいい	-10.8404
行くわ	-10.8404
▁cute	-10.8406
Go	-10.8408
▁僕も	-10.8409
名を	-10.841
ヤー	-10.8412
を捕まえ	-10.8413
hand	-10.8423
具	-10.8423
を連れて	-10.8426
総	-10.8428
▁obey	-10.8428
ied	-10.843
▁dig	-10.8441
DA	-10.8443
夏	-10.8454
▁official	-10.8455
▁heavy	-10.8455
議論	-10.8455
ridge	-10.8456
声を	-10.8459
13	-10.8464
▁buck	-10.8464
のせいだ	-10.8464
▁メイ	-10.8466
That	-10.8467
げる	-10.8473
▁医者	-10.8479
恐ろしい	-10.8481
喋	-10.8482
▁Until	-10.8482
▁Talk	-10.8483
▁crack	-10.8484
mmer	-10.8486
how	-10.8488
oth	-10.8488
ベン	-10.8493
▁Hang	-10.8494
ission	-10.8498
事がある	-10.8503
lon	-10.8505
▁ice	-10.8507
飾	-10.8508
推	-10.8508
麗	-10.8508
▁church	-10.8508
▁loose	-10.851
を食べ	-10.8514
IT	-10.8518
味方	-10.8518
受	-10.8521
高く	-10.8522
俺達	-10.8523
▁vote	-10.8529
時間だ	-10.853
世話	-10.8531
ロード	-10.8532
開発	-10.8532
水を	-10.8534
整	-10.8534
悟	-10.8535
宝	-10.8535
枚	-10.8535
▁hidden	-10.8535
規則	-10.8535
感染	-10.8536
効果	-10.8537
UN	-10.8537
▁drag	-10.8539
▁Stark	-10.854
尋ね	-10.8541
切る	-10.8542
▁今夜は	-10.8543
▁Rick	-10.8543
後ろに	-10.8544
room	-10.8545
▁allowed	-10.8547
ユー	-10.8547
知れ	-10.8551
方法を	-10.8553
の事は	-10.8553
玉	-10.8562
掴	-10.8562
▁Robert	-10.8562
自然	-10.8563
匂い	-10.8566
誤	-10.8567
くれて	-10.8569
▁Stu	-10.8574
era	-10.8575
ino	-10.8576
お前は	-10.8578
わけじゃない	-10.8578
書類	-10.8579
痛い	-10.8579
▁German	-10.858
魔女	-10.8581
ょ	-10.8581
を受ける	-10.8582
草	-10.8589
鼻	-10.8589
▁jail	-10.859
アッラーの御	-10.8597
▁Carl	-10.8599
rum	-10.8599
LL	-10.8601
手術	-10.8603
▁そうじゃない	-10.8611
言ってくれ	-10.8613
便	-10.8613
スティ	-10.8614
▁anti	-10.8615
▁マイケル	-10.8615
恩	-10.8616
怪我	-10.8616
知っておられる	-10.8617
▁Shh	-10.8617
▁dropped	-10.8618
願い	-10.8618
▁crap	-10.8619
▁Cre	-10.862
ジュー	-10.862
削除	-10.8621
しゃ	-10.8627
zy	-10.8636
▁それじゃ	-10.8637
会える	-10.8638
差	-10.8639
▁military	-10.8643
相談	-10.8644
▁knee	-10.8644
伏せ	-10.8645
けた	-10.8646
向かう	-10.8647
をもって	-10.865
だけが	-10.8651
を知っている	-10.8654
run	-10.8663
law	-10.8664
止	-10.8665
消え	-10.8667
▁glass	-10.8667
▁Air	-10.867
boo	-10.867
PD	-10.867
▁scream	-10.8671
▁energy	-10.8671
▁permission	-10.8671
▁relax	-10.8671
▁Little	-10.8671
▁fresh	-10.8671
▁strike	-10.8671
▁slave	-10.8671
男の	-10.8672
案内	-10.8672
▁everywhere	-10.8673
▁intend	-10.8676
ここへ	-10.8676
▁pin	-10.8676
に戻って	-10.8678
▁bow	-10.8678
▁gods	-10.8681
that	-10.8686
金持ち	-10.869
どのように	-10.8691
▁あなたには	-10.8693
を削除	-10.8693
▁Ty	-10.8693
バリー	-10.8694
▁victims	-10.8695
以上の	-10.8696
進め	-10.8697
筈	-10.8698
▁affair	-10.8698
偶然	-10.8698
stream	-10.8698
例えば	-10.87
言っている	-10.87
▁その日	-10.87
▁commit	-10.8701
▁raise	-10.8702
国の	-10.8705
見たこと	-10.8705
使用する	-10.8706
アドレス	-10.871
計画を	-10.8713
fo	-10.8715
▁彼らに	-10.8715
プレ	-10.8719
を開け	-10.8724
円	-10.8725
▁messenger	-10.8725
皮	-10.8725
▁wealth	-10.8726
matic	-10.8726
▁Except	-10.8726
▁neck	-10.8726
hood	-10.8726
まさに	-10.8726
▁alarm	-10.8726
▁East	-10.8727
マッ	-10.8728
増	-10.8732
▁direct	-10.8734
っています	-10.8734
神経	-10.8735
ボックス	-10.8737
ことよ	-10.8737
何をした	-10.8743
rian	-10.8748
貸	-10.8748
▁以前	-10.875
パリ	-10.875
ジョー	-10.8752
栄	-10.8752
扱い	-10.8753
甘	-10.8753
▁USA	-10.8753
遊び	-10.8754
▁band	-10.8758
燃え	-10.8761
後悔	-10.8762
▁Want	-10.8763
たちの	-10.8763
ana	-10.8763
手紙を	-10.8765
決めた	-10.8767
▁hadn	-10.8768
誓	-10.8769
lib	-10.8773
して欲しい	-10.8779
hal	-10.878
混	-10.878
炎	-10.878
ふざけ	-10.878
▁Reese	-10.8781
▁dare	-10.8783
生きる	-10.8783
聞こえた	-10.8786
zi	-10.8787
▁breath	-10.8787
素敵	-10.8788
所で	-10.8789
▁pu	-10.8793
の設定	-10.8794
様な	-10.8795
elect	-10.8797
動く	-10.8799
▁roof	-10.8809
▁spread	-10.8809
何故	-10.8811
▁egg	-10.8811
▁Shi	-10.8812
らせて	-10.8814
▁finding	-10.882
殺され	-10.882
trap	-10.8821
▁feelings	-10.8821
育て	-10.8822
▁inform	-10.8831
メー	-10.8832
わたしたちに	-10.8834
勇敢	-10.8836
リーダー	-10.8836
提案	-10.8836
招待	-10.8836
支	-10.8837
特定	-10.8837
人間は	-10.8839
どのくらい	-10.8845
▁Whoever	-10.8845
ワイン	-10.8848
っこ	-10.885
unk	-10.8854
伝える	-10.8854
を得る	-10.8856
▁300	-10.8856
▁Cu	-10.8862
▁simply	-10.8864
▁firm	-10.8864
条件	-10.8864
正確に	-10.8866
17	-10.8869
▁それも	-10.8869
捕ま	-10.887
▁fuckin	-10.8872
信号	-10.8876
▁onto	-10.8879
がありません	-10.8882
▁bloody	-10.8883
meters	-10.8884
簡単に	-10.8888
去る	-10.8889
入れた	-10.8889
▁default	-10.8891
▁display	-10.8891
▁pattern	-10.8891
墓	-10.8891
▁saving	-10.8892
備	-10.8892
フィン	-10.8892
▁specific	-10.8893
▁Harry	-10.8896
ちゃう	-10.8896
▁そのまま	-10.8906
ole	-10.8907
何処に	-10.8908
▁弁護士	-10.8916
▁dreams	-10.8916
year	-10.8917
が要る	-10.8919
まし	-10.8919
▁Lisbon	-10.8919
▁afternoon	-10.8919
▁ヘンリー	-10.8919
軍隊	-10.8922
turn	-10.8924
でいい	-10.8925
▁毎日	-10.8931
▁助けてくれ	-10.8934
作った	-10.8934
気をつけて	-10.8939
のようだ	-10.8942
ウス	-10.8943
そう思う	-10.8946
勤	-10.8947
陥	-10.8947
▁bottom	-10.8947
あらゆる	-10.8947
▁solve	-10.8949
ulate	-10.895
▁students	-10.895
▁オレは	-10.8957
バッグ	-10.8957
奴は	-10.8962
テープ	-10.8962
送信	-10.8966
死を	-10.8967
救い	-10.8969
elle	-10.8969
ディア	-10.8972
▁bringing	-10.8972
たちに	-10.8973
領	-10.8975
四	-10.8975
▁Seriously	-10.8975
▁South	-10.8976
▁Dar	-10.8983
昨日	-10.8984
愛する	-10.8985
ホーム	-10.8988
振	-10.8989
▁Mc	-10.8991
▁fill	-10.8994
トレー	-10.9001
女は	-10.9001
ウル	-10.9001
都	-10.9002
貧	-10.9003
不思議	-10.9004
▁bullshit	-10.9004
ウェイ	-10.9004
▁alright	-10.9004
▁ladies	-10.9005
▁brave	-10.9006
のことだ	-10.9006
▁君には	-10.9006
働く	-10.9007
るもの	-10.9016
起きる	-10.9017
▁Sh	-10.9019
のかしら	-10.902
分で	-10.902
スケ	-10.9021
まえ	-10.9024
▁units	-10.9025
厳	-10.9028
尻	-10.9032
▁attempt	-10.9032
▁religion	-10.9032
午後	-10.9034
▁Ray	-10.9034
▁あいつは	-10.9037
▁Saul	-10.9038
▁scan	-10.9038
▁Sy	-10.9039
目は	-10.9049
見つけ	-10.9058
▁began	-10.9059
フル	-10.9059
照	-10.906
荒	-10.906
▁オリバー	-10.9061
▁task	-10.9062
当たり	-10.9062
ばいい	-10.9066
出力	-10.907
99	-10.9077
シャー	-10.9078
▁sold	-10.908
▁woods	-10.908
更に	-10.9087
▁Easy	-10.9089
▁engage	-10.9089
▁snow	-10.9089
説得	-10.9089
行きます	-10.9094
▁ここが	-10.9095
region	-10.9095
を持ち	-10.9096
▁ところで	-10.9097
▁Ask	-10.9098
売り	-10.9101
そんなに	-10.9104
▁Kid	-10.9108
▁reached	-10.9108
こんな事	-10.9109
に連絡	-10.9113
言える	-10.9114
▁奥さん	-10.9117
城	-10.9117
環境	-10.9117
▁bridge	-10.9117
▁チャーリー	-10.9117
▁summer	-10.9117
んでいる	-10.9119
んじゃないか	-10.9122
恋人	-10.9122
帰れ	-10.9124
個人的	-10.9127
CE	-10.9127
▁この男	-10.9128
私たちは	-10.9129
ひどい	-10.913
二つ	-10.9132
プリ	-10.9133
▁opened	-10.9133
▁本当の	-10.9134
セー	-10.9142
▁major	-10.9146
▁several	-10.9146
成長	-10.915
▁Barry	-10.915
変わる	-10.9151
驚いた	-10.9153
すればいい	-10.9155
▁結局	-10.9156
▁全然	-10.9156
常	-10.9157
▁lovely	-10.916
はいけない	-10.9163
ブー	-10.9165
訪	-10.9173
副	-10.9174
アパート	-10.9174
▁陛下	-10.9174
タバコ	-10.9174
▁ありがとうございます	-10.9176
祈る	-10.9179
たちを	-10.9184
以外	-10.9184
を探す	-10.9186
を調べ	-10.9188
fil	-10.9188
ようとした	-10.9189
▁彼女と	-10.919
るだろう	-10.9195
約束を	-10.9201
にとっては	-10.9201
ゾンビ	-10.9203
を聞いた	-10.9205
そこから	-10.9207
武器を	-10.9207
oh	-10.9215
ーズ	-10.9216
▁fruit	-10.9232
▁storm	-10.9232
編集	-10.9232
どうでもいい	-10.9234
▁Ooh	-10.9234
af	-10.9235
祈り	-10.9236
約束した	-10.9237
ちょ	-10.924
▁safety	-10.9245
nnie	-10.9248
すごい	-10.925
に入り	-10.9252
pon	-10.9255
ぇ	-10.9256
党	-10.9261
柄	-10.9261
剤	-10.9261
呼吸	-10.9261
▁smile	-10.9261
焼	-10.9263
ati	-10.9264
▁remove	-10.9266
いいですか	-10.9267
ありました	-10.927
資金	-10.9274
議員	-10.9281
wh	-10.9282
を取る	-10.9282
お前を	-10.9284
▁United	-10.929
キャロル	-10.929
▁bunch	-10.929
▁interview	-10.929
どれくらい	-10.9291
残って	-10.9291
▁Min	-10.9294
▁Today	-10.9295
話してくれ	-10.9298
せず	-10.93
の下に	-10.9303
その日	-10.9304
▁concern	-10.9304
UT	-10.9306
以前	-10.9308
何者	-10.9309
疑い	-10.9309
▁West	-10.9309
▁cast	-10.9318
▁opinion	-10.9319
▁pressure	-10.932
内容	-10.932
My	-10.9321
▁Ever	-10.9322
記事	-10.933
ではなかった	-10.9333
以外に	-10.9339
変化	-10.9344
TA	-10.9347
価	-10.9347
▁confess	-10.9348
▁revelation	-10.9348
▁rescue	-10.9348
練習	-10.9348
▁pocket	-10.9349
操作	-10.9349
を聞いて	-10.9351
ニング	-10.9351
▁当然	-10.9358
▁彼は私	-10.9361
パイ	-10.9365
▁Ke	-10.9366
はいつも	-10.9367
▁seriously	-10.9367
gr	-10.9375
感じた	-10.9376
▁Lieutenant	-10.9377
▁enemies	-10.9377
手がかり	-10.9377
評価	-10.9377
分析	-10.9377
▁なるほど	-10.9377
撃ち	-10.938
▁おやすみ	-10.9385
呼んで	-10.9386
薬を	-10.9388
▁お願いだ	-10.939
んですよ	-10.9394
▁sat	-10.9395
のせい	-10.9397
リル	-10.9403
行くんだ	-10.9405
チュー	-10.9405
仮令	-10.9406
掃除	-10.9407
禁止	-10.9407
誰かが	-10.9408
org	-10.9408
▁bill	-10.9409
▁direction	-10.9417
▁drinking	-10.9417
セックス	-10.9419
なしで	-10.9419
人とも	-10.9421
▁played	-10.9422
▁stage	-10.9427
になってる	-10.9431
地球	-10.9434
ダイ	-10.9434
what	-10.9435
▁increase	-10.9436
輝	-10.9436
ビジネス	-10.9436
status	-10.9437
▁absolutely	-10.9438
▁bug	-10.9441
▁lesson	-10.9444
▁wash	-10.9446
帰った	-10.9446
bon	-10.9448
資	-10.945
育	-10.9452
突き	-10.9454
の許に	-10.9455
フランス	-10.9458
復	-10.9459
▁disc	-10.946
益	-10.9465
いている	-10.9465
▁establish	-10.9465
▁vehicle	-10.9465
支援	-10.9466
知り合い	-10.9466
着く	-10.9466
られなかった	-10.9467
らないで	-10.9467
▁hook	-10.9468
cker	-10.9469
▁prisoner	-10.9476
すんだ	-10.9477
夫人	-10.9479
手が	-10.948
場合に	-10.9481
▁Bell	-10.9483
でしょうね	-10.9483
遅い	-10.9484
ログ	-10.9484
▁いつでも	-10.9487
食い	-10.9492
保安官	-10.9495
▁astray	-10.9495
▁Another	-10.9496
▁やっと	-10.9496
▁shame	-10.9496
べきだった	-10.9497
ush	-10.9499
▁Unless	-10.9499
仕え	-10.95
風に	-10.9504
▁Par	-10.9506
行ったこと	-10.9508
頭に	-10.951
買い	-10.9515
土地	-10.9518
▁depend	-10.9518
▁Bla	-10.952
見つける	-10.952
ここに来た	-10.9523
▁breakfast	-10.9525
▁pretend	-10.9526
取得	-10.9527
▁お前も	-10.9529
そうだな	-10.9529
外に出	-10.9529
讃え	-10.9531
死亡	-10.9532
▁pill	-10.9532
お父さん	-10.9533
▁assure	-10.9533
ヘン	-10.9534
ことです	-10.9536
を求めて	-10.9536
申し	-10.9537
日間	-10.9537
第一	-10.954
父上	-10.9542
指紋	-10.9555
手紙	-10.9558
▁weight	-10.9558
▁natural	-10.9559
金庫	-10.956
署名	-10.9561
モード	-10.9562
向か	-10.9562
▁model	-10.9565
gress	-10.9567
ダンス	-10.9568
報い	-10.957
▁States	-10.9571
バラ	-10.9576
があろう	-10.958
扱	-10.9581
騒	-10.9584
召	-10.9584
潔	-10.9584
▁Merciful	-10.9584
▁traffic	-10.9584
▁refuse	-10.9584
気の毒	-10.9584
▁general	-10.9585
▁receive	-10.959
▁prepared	-10.9597
▁Step	-10.9598
主人	-10.9601
▁Hol	-10.9603
地に	-10.9608
閉め	-10.9609
惑	-10.9613
フィルアウン	-10.9614
赤ん坊	-10.9614
暖	-10.9614
▁invent	-10.9615
が好きだ	-10.9618
答えて	-10.9621
危ない	-10.9625
▁shooting	-10.9629
▁ears	-10.9633
を求め	-10.9633
▁Ow	-10.9635
▁彼には	-10.9638
▁student	-10.9641
声が	-10.9644
わたしを	-10.9644
宿	-10.9644
訓戒	-10.9644
に違いない	-10.9644
ネットワーク	-10.9644
サービス	-10.9644
▁Danny	-10.9645
住む	-10.9647
注	-10.9648
やつら	-10.9649
手段	-10.9651
作成	-10.9656
where	-10.9659
▁cap	-10.966
py	-10.9663
眠れ	-10.9666
暴力	-10.9671
	-10.9674
▁village	-10.9674
▁Daniel	-10.9674
才能	-10.9675
▁dump	-10.9677
りません	-10.9679
向き	-10.9679
キロ	-10.9679
▁wire	-10.968
グレ	-10.9681
側に	-10.9684
スターク	-10.9685
ette	-10.9689
捜	-10.969
gri	-10.9691
なくちゃ	-10.9697
〔	-10.9704
掘	-10.9705
▁Sherlock	-10.9705
犠牲者	-10.9705
ドラゴン	-10.9705
▁Chief	-10.9705
▁Gar	-10.9706
▁Russian	-10.9709
方法は	-10.9711
▁Long	-10.9711
使徒たち	-10.9714
頼んだ	-10.9716
ime	-10.9716
die	-10.9718
王子	-10.9718
てくれた	-10.9719
inal	-10.9725
▁だめだ	-10.9726
途	-10.9728
文書	-10.9729
そば	-10.9731
になりたい	-10.9734
闇	-10.9735
▁advance	-10.9735
▁written	-10.9735
▁regret	-10.9735
閣下	-10.9735
▁older	-10.9736
どの	-10.9736
▁Baby	-10.9738
▁Seven	-10.9738
▁この子	-10.9741
▁meaning	-10.9741
▁Fred	-10.975
するつもり	-10.9751
ブロック	-10.9753
▁original	-10.9755
行くの	-10.9758
不信心	-10.9761
▁Play	-10.9761
▁Follow	-10.9765
▁trigger	-10.9765
▁measure	-10.9765
▁chair	-10.9766
大人	-10.9766
ジャン	-10.9766
文字列	-10.9766
みのり	-10.9766
▁アア	-10.9766
▁stayed	-10.9767
35	-10.9767
のですが	-10.977
に見える	-10.9774
待	-10.9775
▁stolen	-10.9777
titude	-10.9779
その後	-10.9792
射	-10.9794
▁scar	-10.9795
挨拶	-10.9796
▁Previously	-10.9796
▁うーん	-10.9796
関連	-10.9796
足を	-10.9796
最低	-10.9797
つかない	-10.9799
▁しばらく	-10.9808
無実	-10.9818
聞いてる	-10.9819
首を	-10.9819
宣	-10.9826
〕	-10.9826
▁perform	-10.9826
兄貴	-10.9827
▁Yep	-10.9831
▁Comm	-10.9831
スキ	-10.9835
▁あたし	-10.9839
▁mountain	-10.9841
▁私達の	-10.9849
▁hello	-10.9853
捕	-10.9856
▁argument	-10.9857
▁emergency	-10.9857
▁opportunity	-10.9857
▁practice	-10.9857
億	-10.9857
事務所	-10.9857
戦闘	-10.9859
▁rent	-10.9862
タイム	-10.9863
▁Send	-10.9863
全てが	-10.9863
▁Steve	-10.9866
PA	-10.9874
26	-10.9875
▁expected	-10.9879
危険だ	-10.9884
眼	-10.9888
コマンド	-10.9888
▁network	-10.9888
匹	-10.9888
法律	-10.9888
地域	-10.9889
不義	-10.9891
▁あっち	-10.9891
その中に	-10.9891
どうなってる	-10.9894
▁disappear	-10.9897
だったわ	-10.99
ドレス	-10.99
本当の	-10.9902
▁headed	-10.9903
行きましょう	-10.9903
最高	-10.9907
▁details	-10.9908
の情報	-10.9908
▁Sch	-10.9911
マシ	-10.9913
ita	-10.9915
全てを	-10.9916
グレー	-10.9918
宗教	-10.9919
ビュー	-10.9919
谷	-10.9919
するまで	-10.9919
▁proper	-10.9921
再び	-10.9921
▁heat	-10.9924
▁seemed	-10.9926
ball	-10.9927
遅く	-10.9928
話がある	-10.9929
wan	-10.9931
▁もうすぐ	-10.9932
▁どこだ	-10.9933
▁Same	-10.9933
誓い	-10.9936
急いで	-10.9939
▁ここには	-10.994
私たちの	-10.9943
赦	-10.9949
▁nervous	-10.995
凍	-10.995
▁affect	-10.995
▁exchange	-10.995
▁repeat	-10.995
戻れ	-10.995
交換	-10.995
を探して	-10.9953
彼らの	-10.9953
男の子	-10.9955
▁Booth	-10.9955
昔	-10.9956
ものに	-10.9958
aid	-10.9962
ET	-10.9962
▁Bob	-10.9968
したもの	-10.997
burg	-10.9975
備え	-10.9979
請	-10.998
▁creature	-10.9981
▁effort	-10.9981
計算	-10.9981
▁cancer	-10.9981
▁Sky	-10.9986
rated	-10.9989
身体	-10.9989
▁Drop	-10.9992
▁pictures	-10.9993
リーン	-10.9994
▁Pull	-10.9996
▁Cal	-11.0008
▁develop	-11.001
恩恵	-11.0011
知られ	-11.0011
春	-11.0012
すばらしい	-11.0012
複雑	-11.0012
▁odd	-11.0012
▁spell	-11.0012
▁私たちが	-11.0013
▁besides	-11.0013
地図	-11.0014
▁angel	-11.0017
▁organ	-11.0027
を助ける	-11.003
室に	-11.0031
▁greatest	-11.0033
親友	-11.0033
恐れる	-11.0036
▁beach	-11.0039
▁curse	-11.004
帯	-11.0043
▁Claire	-11.0043
卵	-11.0043
▁分かりました	-11.0043
帽子	-11.0043
▁Brody	-11.0044
▁darkness	-11.0047
▁obviously	-11.0049
基地	-11.0049
▁Alan	-11.005
してたの	-11.0053
▁amount	-11.0055
来ました	-11.0061
▁たった	-11.0063
かける	-11.0066
読んだ	-11.0068
縁	-11.0074
▁Green	-11.0075
▁Work	-11.0075
ほう	-11.0075
▁owner	-11.0076
リアン	-11.008
▁according	-11.008
殺人犯	-11.008
mod	-11.009
lap	-11.009
知っています	-11.0091
▁attacked	-11.0093
▁clearly	-11.0095
吹	-11.0096
群	-11.0098
隠れて	-11.0099
ハッ	-11.0103
られてる	-11.0103
丸	-11.0105
盛	-11.0106
▁brief	-11.0106
▁contract	-11.0106
▁separate	-11.0106
確保	-11.0106
させてくれ	-11.0107
▁ええと	-11.0108
ことができます	-11.0108
▁Light	-11.0108
▁center	-11.0109
勝ち	-11.0109
▁nose	-11.0111
すら	-11.0111
てしまう	-11.0115
▁realized	-11.0116
▁produce	-11.012
▁Paris	-11.0125
達が	-11.0127
態	-11.0128
大事	-11.0133
行くよ	-11.0135
シル	-11.0136
象	-11.0136
香	-11.0137
▁upstairs	-11.0137
データベース	-11.0137
▁アレックス	-11.0138
参照	-11.0138
始まる	-11.0138
承知	-11.0138
▁dumb	-11.0139
grade	-11.0141
シャン	-11.0143
タル	-11.0143
ken	-11.0144
▁キャリー	-11.0144
▁Commander	-11.0145
var	-11.0147
▁sale	-11.0147
臭い	-11.0151
車は	-11.0152
あるのか	-11.0152
行かないと	-11.0157
▁sending	-11.0158
▁こちらは	-11.016
▁concerned	-11.0162
そうすれば	-11.0165
生まれた	-11.0168
妊娠	-11.0169
▁Close	-11.0169
自己	-11.0169
手伝い	-11.017
修理	-11.017
定義	-11.017
▁weekend	-11.0173
▁Better	-11.0175
▁Yet	-11.0176
仕事だ	-11.0179
道に	-11.0179
▁psych	-11.0181
に乗って	-11.0187
もいる	-11.0191
▁奴の	-11.0195
▁shoes	-11.0198
測	-11.02
▁ghost	-11.0201
核	-11.0201
頑張って	-11.0201
具合	-11.0205
カラ	-11.0206
▁gain	-11.0208
組み	-11.0211
を受けて	-11.0213
と私は	-11.0214
以外の	-11.0217
▁Such	-11.0218
に従って	-11.023
▁犯人は	-11.0232
FBI	-11.0232
になれ	-11.0232
易	-11.0232
vie	-11.0233
あるわ	-11.0233
預	-11.0233
デフォルト	-11.0233
▁Exactly	-11.0233
▁application	-11.0233
パートナー	-11.0233
乾杯	-11.0233
ギャ	-11.0233
▁mask	-11.0234
▁Under	-11.0236
しなければ	-11.0236
信仰する者	-11.0237
▁fucked	-11.0238
あなたがたのために	-11.0239
▁約束する	-11.0242
▁design	-11.0243
▁below	-11.0245
▁pet	-11.0249
48	-11.0252
トリック	-11.0254
ization	-11.0259
▁Quinn	-11.0265
▁content	-11.0265
確実	-11.0266
LO	-11.0266
スティー	-11.0268
▁dirty	-11.027
▁Lady	-11.0271
まずい	-11.0272
りたい	-11.0278
を見せて	-11.028
▁exam	-11.0281
巻き	-11.0284
とっても	-11.0287
規	-11.0291
▁Wil	-11.0291
んでしょう	-11.0294
▁switch	-11.0297
▁わかりました	-11.0297
指揮	-11.0297
ending	-11.0298
▁disbelievers	-11.0298
愛してる	-11.0299
ベイ	-11.0304
囲	-11.0305
Oh	-11.0307
▁product	-11.0307
働き	-11.0308
izing	-11.0312
読め	-11.0312
正しく	-11.0317
することを	-11.0318
▁greater	-11.0323
いくつかの	-11.0323
いき	-11.0328
祭	-11.0329
乳	-11.0329
印刷	-11.0329
▁Holmes	-11.0329
▁weather	-11.0329
▁Besides	-11.0329
▁Guess	-11.0329
アウト	-11.0329
離婚	-11.0329
得意	-11.0331
▁Dude	-11.0335
怪物	-11.0335
▁Roy	-11.0344
トップ	-11.0348
▁Cut	-11.0352
犯罪者	-11.0361
微	-11.0361
採	-11.0361
そろそろ	-11.0361
▁captain	-11.0361
▁bottle	-11.0361
苦労	-11.0361
▁Police	-11.0361
高校	-11.0362
▁Harold	-11.0362
せば	-11.0365
▁huge	-11.0365
▁grave	-11.0366
▁statement	-11.0367
開けて	-11.0377
▁breaking	-11.0378
下げ	-11.038
かなり	-11.0381
処	-11.0381
▁Off	-11.0383
▁health	-11.0384
ada	-11.0387
Re	-11.0387
寝る	-11.0391
vy	-11.0392
模	-11.0393
憎	-11.0393
却	-11.0393
▁chief	-11.0394
▁Wood	-11.0394
虚偽	-11.0394
喜び	-11.0394
公園	-11.0394
兵器	-11.0395
暗	-11.0396
▁animals	-11.0401
支払	-11.0402
問題が	-11.0408
とは違う	-11.0408
war	-11.041
▁paint	-11.0414
じゃ無い	-11.0416
は死んだ	-11.0416
トロ	-11.0419
真の	-11.0424
ラル	-11.0425
合って	-11.0426
添	-11.0426
▁disappoint	-11.0426
▁succeed	-11.0426
ぉ	-11.0426
▁CBI	-11.0426
タクシー	-11.0426
▁non	-11.0428
▁replace	-11.0428
▁flat	-11.0428
▁forgiveness	-11.0428
合った	-11.043
▁soldiers	-11.0436
▁detail	-11.0438
連れて行く	-11.0438
To	-11.0443
今夜	-11.0444
だけである	-11.0445
▁meat	-11.0447
under	-11.0448
So	-11.045
書く	-11.045
ケツ	-11.0455
▁resource	-11.0459
範囲	-11.0459
▁split	-11.0459
始まり	-11.0459
終わって	-11.0459
▁Honey	-11.0459
工場	-11.0461
空港	-11.0461
▁arms	-11.0462
問題を	-11.0462
立場	-11.0464
OW	-11.0464
死んでる	-11.0465
可能な	-11.0467
越え	-11.0467
ched	-11.0469
始めて	-11.0469
善い	-11.0477
食べ物	-11.0482
出かけ	-11.0487
筋	-11.0491
イブラーヒーム	-11.0491
▁familiar	-11.0491
▁restaurant	-11.0491
▁skill	-11.0493
▁bright	-11.0493
有り	-11.0494
おい	-11.0495
▁recently	-11.0496
istic	-11.0498
▁release	-11.05
ちょうど	-11.0501
病院に	-11.0519
を探し	-11.0522
連邦	-11.0524
▁devil	-11.0524
退屈	-11.0524
▁Copy	-11.0525
▁Mommy	-11.0526
道路	-11.0527
ケーキ	-11.0527
▁そうだね	-11.053
すこと	-11.0531
フォード	-11.0532
こちら	-11.0532
を頼む	-11.0538
返して	-11.0539
ワード	-11.0541
▁Van	-11.0542
ゴミ	-11.0554
	-11.0557
縮	-11.0557
▁wheel	-11.0557
医療	-11.0557
▁demand	-11.0557
パスワード	-11.0557
惑星	-11.0557
誤解	-11.0558
手伝って	-11.0558
▁awful	-11.0563
驚く	-11.0563
ッジ	-11.0564
電気	-11.0565
チップ	-11.0566
($	-11.057
撃たれた	-11.0574
ときは	-11.0577
守る	-11.058
▁Home	-11.0584
残る	-11.0586
材	-11.059
いずれ	-11.059
▁Congratulations	-11.059
▁marriage	-11.059
▁prevent	-11.059
▁install	-11.059
ヴォ	-11.059
現世	-11.059
納得	-11.059
かつて	-11.0591
▁ジョージ	-11.0603
落ちた	-11.0604
▁Tony	-11.0605
aught	-11.0605
調べた	-11.0613
ェ	-11.0614
仲	-11.0615
を変更	-11.0617
ification	-11.0621
操	-11.0622
▁false	-11.0623
伸	-11.0623
▁suicide	-11.0623
▁betray	-11.0624
誰にも	-11.0625
▁Roger	-11.0626
暮らし	-11.0628
中止	-11.063
▁However	-11.0641
▁training	-11.0642
cap	-11.0643
ようなもの	-11.0647
まず	-11.0648
▁おれ	-11.0649
ジャック	-11.0654
おられる	-11.0655
攻	-11.0656
▁easier	-11.0656
conscious	-11.0656
維持	-11.0656
view	-11.0657
▁俺には	-11.0658
ルス	-11.0659
過ぎる	-11.0662
年も	-11.0664
▁manager	-11.0665
▁Wa	-11.0666
parent	-11.0668
与えられた	-11.067
が必要です	-11.067
するよう	-11.0677
unch	-11.0679
保証	-11.0682
言ってるの	-11.0682
終え	-11.0686
有る	-11.0687
宅	-11.0689
及	-11.0689
舞	-11.0689
快	-11.0689
▁pregnant	-11.069
看	-11.069
獲	-11.069
対処	-11.069
義務	-11.069
▁Jimmy	-11.0691
テロリスト	-11.0691
トゥ	-11.0699
シェル	-11.0701
▁appears	-11.0701
関心	-11.0704
僕が	-11.0705
知ら	-11.0705
▁mountains	-11.0707
車で	-11.0708
毎日	-11.0714
キャン	-11.0715
▁Comp	-11.0722
並	-11.0722
▁famous	-11.0723
▁favour	-11.0723
交渉	-11.0723
よろしい	-11.0723
▁screen	-11.0723
あげた	-11.0725
▁Without	-11.0726
▁acting	-11.0732
時期	-11.0734
▁Sign	-11.0734
とおり	-11.0736
欲しいの	-11.0736
グリ	-11.0737
としたら	-11.0739
ネル	-11.074
▁painful	-11.0747
▁cow	-11.075
呼	-11.0751
arch	-11.0752
敗	-11.0756
章	-11.0756
▁Abraham	-11.0757
▁sacrifice	-11.0757
メンバー	-11.0759
▁shape	-11.0759
の一人	-11.076
ウソ	-11.076
頼み	-11.0761
▁Ku	-11.0762
だろうか	-11.0762
▁いいな	-11.0764
大佐	-11.0768
▁Edit	-11.077
外で	-11.0773
ニック	-11.0774
▁reg	-11.0775
コーヒー	-11.0779
bel	-11.0782
司	-11.0782
わかってる	-11.0785
▁Spa	-11.0787
▁breathe	-11.0789
お前が	-11.079
嵐	-11.079
▁Sweet	-11.079
▁asleep	-11.079
▁database	-11.0791
における	-11.0791
ドライブ	-11.0791
上がって	-11.0792
呼んだ	-11.0793
▁ended	-11.0794
▁君達	-11.0795
▁turning	-11.0795
開いて	-11.0796
仕事が	-11.0796
▁route	-11.0797
ッター	-11.0799
持っている	-11.0802
にかけて	-11.0802
If	-11.0804
ランス	-11.0805
我々を	-11.0805
▁Lock	-11.0806
ably	-11.0807
気をつけ	-11.0807
たいんだ	-11.0813
24	-11.0813
する事	-11.0815
大勢	-11.0819
に会う	-11.0819
▁nearly	-11.0819
▁Eric	-11.082
設	-11.082
▁Director	-11.0824
▁benefit	-11.0824
プレゼント	-11.0824
ハロルド	-11.0824
エネルギー	-11.0824
詩	-11.0824
▁array	-11.0824
見つかる	-11.0825
哀れ	-11.0825
▁covered	-11.0828
fore	-11.0832
週末	-11.0837
携帯電話	-11.0845
マス	-11.0847
▁Mag	-11.0848
ここから出	-11.085
に行こう	-11.0855
▁fired	-11.0857
	-11.0858
▁kitchen	-11.0858
▁Scott	-11.0858
▁Pretty	-11.0858
デバイス	-11.0858
▁フィンチ	-11.0858
報酬	-11.0858
▁nature	-11.0858
まれて	-11.0858
禁じ	-11.0859
レッド	-11.0866
が見える	-11.0868
acy	-11.0871
になれる	-11.0871
我々に	-11.0874
を作った	-11.0875
期間	-11.0875
主から	-11.0876
Ha	-11.0882
杯	-11.0886
ドアを開け	-11.0886
葉	-11.0891
技	-11.0891
▁grateful	-11.0892
▁vampire	-11.0892
▁terror	-11.0892
▁えぇ	-11.0892
▁engine	-11.0893
着け	-11.0893
crypt	-11.0894
▁noise	-11.0895
読む	-11.0895
悲	-11.0895
▁Ye	-11.0899
どれだけ	-11.09
いろ	-11.0902
▁chat	-11.0904
▁誰に	-11.0904
ウォ	-11.0906
スカ	-11.0907
不安	-11.0908
▁Count	-11.0911
を作って	-11.0915
サム	-11.0915
庫	-11.0919
事件の	-11.0921
出身	-11.0925
株	-11.0926
鏡	-11.0926
▁afford	-11.0926
▁stories	-11.0926
通常	-11.0927
▁insane	-11.0927
食料	-11.0927
見ている	-11.0933
▁Wall	-11.0933
つもりはない	-11.0934
トム	-11.0934
結婚式	-11.0937
思われ	-11.0941
▁online	-11.0943
メル	-11.0948
▁Sen	-11.0951
刑	-11.0951
笑い	-11.0954
うまい	-11.0956
%2	-11.096
歓迎	-11.096
▁appointed	-11.096
▁determine	-11.096
▁possibly	-11.096
飯	-11.096
▁fought	-11.096
▁Ryan	-11.096
▁Victor	-11.096
階段	-11.0961
▁Travis	-11.0961
権限	-11.0961
ホームズ	-11.0963
▁gang	-11.0964
優先	-11.0965
▁daddy	-11.0965
▁suddenly	-11.0965
▁guided	-11.0971
切った	-11.0971
基	-11.0973
▁人間の	-11.0975
まらない	-11.0976
▁wave	-11.0976
得る	-11.0977
掛	-11.0978
▁Head	-11.0981
一部	-11.0984
▁Bad	-11.0985
▁hunt	-11.0986
を得た	-11.099
▁crying	-11.0992
夕	-11.0994
逃げて	-11.0994
巡	-11.0995
礼拝	-11.0995
▁science	-11.0995
▁barely	-11.0995
住まい	-11.0995
予想	-11.0995
▁click	-11.0995
▁alien	-11.0996
ほんの	-11.0997
やってくれ	-11.1
失敗した	-11.1003
duct	-11.1004
見たい	-11.1004
▁arrested	-11.1006
▁nowhere	-11.1007
ただの	-11.1013
悪くない	-11.1021
題	-11.1021
ルーム	-11.1021
▁chose	-11.1021
できるか	-11.1022
来たんだ	-11.1024
は誰だ	-11.1024
マスター	-11.1024
巻	-11.1024
ソール	-11.1028
羽	-11.1029
▁Always	-11.1029
指輪	-11.103
▁Charles	-11.103
殺して	-11.103
▁shock	-11.103
一般	-11.1031
無効	-11.1032
▁Jesse	-11.1033
かかった	-11.1033
▁Bri	-11.1033
▁flying	-11.1036
サイト	-11.1038
言わないで	-11.1039
▁watched	-11.1039
▁manage	-11.1041
内に	-11.1043
話さない	-11.1044
嫌いだ	-11.1044
を行う	-11.1046
吐	-11.1048
▁soldier	-11.1054
ピア	-11.1054
▁Mama	-11.1059
染	-11.1063
conf	-11.1063
景	-11.1063
劇	-11.1064
帳	-11.1064
−	-11.1064
▁teeth	-11.1064
▁vision	-11.1065
▁department	-11.1065
bot	-11.1066
▁spring	-11.1067
▁noticed	-11.1067
考えている	-11.1068
上げた	-11.107
コンピューター	-11.1071
サル	-11.1071
▁coat	-11.1071
またかれら	-11.1073
▁Act	-11.1087
ウォル	-11.1087
ケース	-11.1088
rack	-11.1088
▁rap	-11.1093
▁一体何	-11.1094
偉	-11.1098
▁include	-11.1098
▁bathroom	-11.1099
釈放	-11.1099
賛成	-11.1099
疑問	-11.1099
▁Star	-11.11
▁lift	-11.11
▁invest	-11.1101
▁bite	-11.1123
gui	-11.1124
個人	-11.1131
自分が	-11.1133
謎	-11.1133
間違え	-11.1133
▁infect	-11.1133
狼	-11.1133
うれしい	-11.1135
▁Forget	-11.1138
LD	-11.1139
▁fake	-11.114
ブレ	-11.1142
するように	-11.1143
信じられ	-11.1148
400	-11.115
▁こんなこと	-11.1151
一体	-11.1153
▁Far	-11.1158
クルー	-11.1163
rad	-11.1164
映	-11.1168
▁surveillance	-11.1168
スーパー	-11.117
▁Fucking	-11.117
scribe	-11.1174
伝えて	-11.1177
おっ	-11.1178
教える	-11.1181
口に	-11.1182
▁boot	-11.1182
28	-11.1187
▁彼はその	-11.119
▁animal	-11.1195
▁Tru	-11.1197
好きだ	-11.1198
▁わかったわ	-11.1201
絞	-11.1203
興奮	-11.1203
英雄	-11.1203
否定	-11.1204
名誉	-11.1204
▁witch	-11.1204
って事	-11.1204
▁Jason	-11.1207
おまえ	-11.1208
子ども	-11.121
直す	-11.121
なんとか	-11.1211
ストン	-11.1212
入力	-11.1215
作業	-11.1216
▁sail	-11.1221
問題ない	-11.1225
PE	-11.123
不信心者	-11.123
嫌な	-11.1233
ED	-11.1234
erson	-11.1234
▁Thomas	-11.1239
久しぶり	-11.1239
坊	-11.1239
尋問	-11.1239
応答	-11.1239
▁cloud	-11.1239
▁たとえ	-11.124
おかげで	-11.1244
SH	-11.1244
終わら	-11.1245
会社の	-11.1246
▁Hard	-11.1246
▁Tim	-11.1248
▁arrive	-11.1248
標的	-11.1248
▁tie	-11.1255
▁rip	-11.1255
ラボ	-11.1256
▁あいつら	-11.1257
何とか	-11.1258
イエス	-11.1258
人生は	-11.126
といい	-11.1265
ポン	-11.1267
不正	-11.1273
算	-11.1273
	-11.1274
▁threw	-11.1274
泥棒	-11.1274
▁flee	-11.1275
▁authority	-11.1275
▁Tommy	-11.1277
血液	-11.1278
▁chip	-11.128
▁Old	-11.1284
point	-11.1288
▁Dean	-11.1288
するだろう	-11.1289
我々	-11.1289
▁ruin	-11.1289
生き残	-11.1296
いくつか	-11.1301
抜	-11.1302
単	-11.1307
化学	-11.1307
▁Sun	-11.1308
施	-11.1309
▁plenty	-11.1309
ヒュー	-11.131
▁password	-11.131
▁unbelievers	-11.131
種類	-11.131
▁Morning	-11.131
▁fate	-11.1315
を追加	-11.1316
じっと	-11.1317
場所で	-11.1321
▁therefore	-11.1322
共有	-11.1322
決める	-11.1322
を設定	-11.1324
信じてる	-11.133
戻ってくる	-11.1333
▁アンタ	-11.1334
乗せ	-11.1338
熟	-11.1345
メイ	-11.1345
▁Jacob	-11.1345
▁corrupt	-11.1345
▁photograph	-11.1345
▁physical	-11.1345
優秀	-11.1345
▁stock	-11.1345
欲しかった	-11.1346
世界の	-11.1347
これらは	-11.1348
▁Simon	-11.1348
的だ	-11.1348
づけ	-11.1349
多い	-11.1354
覚えている	-11.1356
留め	-11.1358
まあ	-11.1359
おうと	-11.1359
聞いてくれ	-11.136
EL	-11.1361
魔	-11.1364
▁tall	-11.1376
黙って	-11.1378
ブライ	-11.138
財	-11.138
影	-11.138
戸	-11.1381
━	-11.1381
▁Olivia	-11.1381
▁Resurrection	-11.1381
▁respond	-11.1381
▁Street	-11.1381
▁drown	-11.1381
▁rise	-11.1382
▁profile	-11.1382
▁package	-11.1383
▁fellow	-11.1383
できませんでした	-11.1385
▁Pu	-11.1388
御望み	-11.1389
▁Aah	-11.1391
感謝します	-11.1391
ないだろう	-11.1395
真っ	-11.1398
返事	-11.1401
寄せ	-11.141
緑	-11.1417
宮	-11.1417
板	-11.1417
無線	-11.1419
乗って	-11.142
レナ	-11.1422
ひと	-11.1423
上司	-11.1424
払って	-11.1424
付ける	-11.1427
以前の	-11.143
言おう	-11.143
彼と	-11.143
ford	-11.143
label	-11.1432
▁Bur	-11.1433
最近	-11.1434
リバー	-11.1437
▁Both	-11.1438
もらえる	-11.1442
兄さん	-11.1444
昨	-11.1449
あなたと	-11.1449
調べる	-11.1451
崇拝	-11.1452
融	-11.1452
▁ridiculous	-11.1453
班	-11.1453
繰り返し	-11.1453
http	-11.1453
▁plain	-11.1453
▁貴方は	-11.1453
\\	-11.1453
教師	-11.1454
だらけ	-11.1455
▁Port	-11.1457
NA	-11.1458
したり	-11.146
なあ	-11.1461
歩く	-11.1462
▁Hear	-11.1463
忘れない	-11.1466
出会った	-11.1466
モノ	-11.1471
を救った	-11.1472
コブ	-11.1477
大切な	-11.1478
▁なんてこと	-11.1481
始	-11.1483
アッラーの御許	-11.1485
▁Europe	-11.1489
▁Murphy	-11.1489
▁represent	-11.1489
ネズミ	-11.1489
▁Israel	-11.1489
▁virus	-11.1489
達也	-11.1489
▁milk	-11.1489
▁element	-11.1489
▁Speak	-11.1489
クイーン	-11.1489
▁911	-11.149
誇り	-11.1491
気にしない	-11.1496
▁ordered	-11.1496
助ける	-11.1499
を見つけて	-11.1505
▁Dave	-11.1506
やりたい	-11.1506
▁mass	-11.1507
▁何の話	-11.151
面白	-11.1512
大変な	-11.1514
以上に	-11.1518
外国	-11.1519
勝つ	-11.152
見逃	-11.1522
ension	-11.1522
なかったのか	-11.1523
▁author	-11.1523
▁Sho	-11.1523
医	-11.1524
飛行	-11.1525
腐	-11.1525
催	-11.1525
占	-11.1525
▁sweetheart	-11.1525
▁cousin	-11.1525
保険	-11.1525
接触	-11.1525
▁launch	-11.1525
もらって	-11.1531
bur	-11.1532
ella	-11.1538
▁scr	-11.154
file	-11.1545
者たちは	-11.1547
食べた	-11.1548
諸君	-11.1551
つけて	-11.1551
お母さん	-11.1554
昇	-11.1555
▁家に帰	-11.1556
間違ってる	-11.1556
boy	-11.1557
初め	-11.1559
必	-11.1559
縛	-11.1561
廃	-11.1561
▁zombie	-11.1561
冬	-11.1561
▁presence	-11.1561
グリーン	-11.1568
▁Thus	-11.157
▁誰の	-11.1579
倒れ	-11.1582
ipped	-11.1583
するぞ	-11.1584
話してる	-11.1585
必要だ	-11.1588
するのに	-11.159
出来事	-11.1592
米	-11.1592
上げる	-11.1594
even	-11.1594
どうか	-11.1594
ウェル	-11.1595
貸して	-11.1595
片付け	-11.1596
布	-11.1598
▁disease	-11.1598
ダニエル	-11.1598
▁Ladies	-11.1598
御赦し	-11.1598
やすい	-11.1598
分からん	-11.16
▁あなた方	-11.1611
わたしが	-11.1612
▁Sal	-11.1614
以外は	-11.1616
▁dust	-11.1621
{	-11.1622
当然	-11.1623
▁cure	-11.1627
銀	-11.1628
▁legal	-11.163
▁問題は	-11.1633
担	-11.1634
納	-11.1634
mighty	-11.1634
▁Professor	-11.1634
▁darling	-11.1634
▁divorce	-11.1634
▁"%1"	-11.1634
▁Officer	-11.1634
▁tank	-11.1635
ッコ	-11.1636
▁sync	-11.1636
服従	-11.1636
▁Cap	-11.1638
▁mentioned	-11.164
▁successful	-11.1641
▁theory	-11.1642
book	-11.1642
もらいたい	-11.1643
泣き	-11.1645
でもある	-11.1651
▁Za	-11.1656
共に	-11.1656
おり	-11.1656
話そう	-11.1656
方である	-11.1664
count	-11.1666
致	-11.1666
せられる	-11.1666
サジダ	-11.1671
コントロール	-11.1671
ディレクトリ	-11.1671
矢	-11.1671
▁awesome	-11.1671
▁World	-11.1671
▁illegal	-11.1671
休暇	-11.1671
を失う	-11.1671
▁chain	-11.1673
▁capable	-11.1674
▁Life	-11.1674
いかない	-11.1677
言葉は	-11.1681
▁letting	-11.1684
▁dick	-11.1684
ograph	-11.1689
行う	-11.1691
と思っている	-11.1696
▁player	-11.1701
換え	-11.1704
を切り	-11.1705
しそう	-11.1705
幾	-11.1708
Pharaoh	-11.1708
▁Absolutely	-11.1708
→	-11.1708
▁method	-11.1708
滞在	-11.1708
非難	-11.1709
マーフィー	-11.171
下された	-11.171
MAN	-11.1711
米国	-11.1713
長官	-11.1714
メイン	-11.1716
▁tail	-11.1716
中です	-11.1718
▁introduce	-11.1718
嘘を	-11.172
▁murderer	-11.172
bol	-11.1721
あなたがたの主	-11.1722
▁Walker	-11.1723
▁えー	-11.1724
けどね	-11.1726
pher	-11.1727
▁Sara	-11.1728
▁Shall	-11.173
via	-11.173
▁エド	-11.1735
▁concerning	-11.1736
Allah	-11.1737
36	-11.1739
ポート	-11.1739
アメリカ人	-11.1741
ことはできない	-11.1741
一方	-11.1742
ファイルの	-11.1742
会おう	-11.1742
訴	-11.1743
▁detect	-11.1743
糞	-11.1745
▁Watson	-11.1745
同僚	-11.1745
目覚め	-11.1745
▁grew	-11.1745
単純	-11.1745
段階	-11.1745
予約	-11.1746
▁ようこそ	-11.1746
フィルタ	-11.1746
▁percent	-11.1747
定められた	-11.1748
はどこに	-11.1748
せい	-11.175
▁ダニー	-11.175
正体	-11.1753
目で	-11.1754
われはかれら	-11.1757
ヴァン	-11.176
▁Free	-11.1762
下がって	-11.1766
wit	-11.1768
▁considered	-11.1769
▁auto	-11.1777
叫	-11.178
ロール	-11.1781
才	-11.1781
就	-11.1782
▁Enough	-11.1782
山里	-11.1783
▁loud	-11.1784
▁based	-11.1785
AC	-11.1788
ベス	-11.1799
を追って	-11.1801
▁おっと	-11.1802
事になる	-11.1806
▁career	-11.1811
行ける	-11.1813
辞	-11.1815
イイ	-11.1817
飼	-11.182
▁crowd	-11.182
▁foreign	-11.182
▁trail	-11.182
亡くなった	-11.182
押さえ	-11.1821
▁Lucy	-11.1821
変換	-11.1821
寄り	-11.1826
数字	-11.1826
理子	-11.1831
▁faster	-11.1832
以内	-11.1847
▁lad	-11.1848
祝	-11.1857
純	-11.1857
ないであろう	-11.1857
氷	-11.1857
▁throat	-11.1857
日付	-11.1857
▁root	-11.1857
▁hardly	-11.1858
機関	-11.1858
▁comfortable	-11.1859
▁Enter	-11.1862
閉	-11.1863
▁attend	-11.1864
有罪	-11.1868
メント	-11.187
▁useful	-11.187
ike	-11.1871
危	-11.188
▁いいから	-11.1884
十分に	-11.1887
協	-11.1889
禁	-11.1893
▁ignore	-11.1895
▁regular	-11.1895
を殺し	-11.1896
▁email	-11.1897
あなたがたの中	-11.1897
▁Anyone	-11.1898
辞め	-11.1898
▁China	-11.1898
シャツ	-11.1902
Ch	-11.1905
現金	-11.1905
となった	-11.1912
済	-11.1913
▁dragon	-11.1913
▁Arch	-11.1917
気付	-11.1918
これら	-11.1918
ついてる	-11.1924
しまって	-11.1924
空気	-11.1925
▁dry	-11.1926
弁	-11.1932
ポイント	-11.1932
▁behavior	-11.1932
▁female	-11.1932
アプリケーション	-11.1932
県	-11.1932
▁ought	-11.1932
障害	-11.1933
▁うわ	-11.1934
なければなりません	-11.1936
ポンド	-11.1937
奥さん	-11.194
ない限り	-11.1942
Be	-11.1951
のを見た	-11.1953
▁total	-11.1956
▁exit	-11.1956
のことで	-11.1959
▁Cass	-11.196
▁filled	-11.1962
illa	-11.1969
堂	-11.197
▁schedule	-11.197
▁Satan	-11.197
▁complain	-11.1971
レストラン	-11.1971
▁Night	-11.1973
ボタン	-11.1978
駄目	-11.1983
最後に	-11.1985
数え	-11.1987
▁Billy	-11.1988
クリック	-11.199
クール	-11.199
リオ	-11.1991
を愛して	-11.1991
▁Lee	-11.1995
発表	-11.1998
ology	-11.2005
▁exact	-11.2006
拾	-11.2008
▁downstairs	-11.2008
▁universe	-11.2008
肩	-11.2008
▁Mount	-11.2008
▁awake	-11.2009
▁transport	-11.2009
来てる	-11.201
▁Doc	-11.2011
▁Feel	-11.2015
▁Dec	-11.2015
嘘つき	-11.2016
▁somehow	-11.2016
簡単な	-11.2017
働	-11.2018
take	-11.2018
▁fella	-11.2019
可能性がある	-11.202
私も	-11.2021
▁burned	-11.2024
▁Hope	-11.2028
In	-11.2028
▁どこに行く	-11.2031
僕たち	-11.2034
何があった	-11.2034
ほんと	-11.2042
▁stranger	-11.2044
喉	-11.2046
▁FALSE	-11.2046
▁similar	-11.2046
喧	-11.2046
プロジェクト	-11.2046
アッラーを畏れ	-11.2046
思わなかった	-11.2046
▁distract	-11.2046
▁Emily	-11.2047
フランス語	-11.2047
▁Truth	-11.205
▁待ってくれ	-11.205
▁parameter	-11.2052
▁今から	-11.2054
dding	-11.2056
の居場所	-11.2057
▁agreed	-11.2066
主張	-11.207
撃った	-11.2071
▁male	-11.2076
ダル	-11.2077
▁tip	-11.2079
する気	-11.208
コート	-11.2081
▁provided	-11.2084
岩	-11.2085
復讐	-11.2085
▁Blood	-11.2085
▁Chinese	-11.2085
▁easily	-11.2085
セキュリティ	-11.2085
▁shirt	-11.2085
尊敬	-11.2085
しゃべ	-11.2085
▁マックス	-11.209
▁standard	-11.209
▁severe	-11.209
▁tend	-11.2092
▁cake	-11.2092
other	-11.2094
air	-11.2094
凄い	-11.2094
を探してる	-11.2094
case	-11.2095
▁Ph	-11.2098
▁grown	-11.2106
ないといけない	-11.2107
駄目だ	-11.2111
▁possess	-11.2112
が入って	-11.2113
▁Force	-11.2116
クビ	-11.2118
話せる	-11.2119
敷	-11.2123
▁Colonel	-11.2123
▁protocol	-11.2123
▁warrant	-11.2123
呼べ	-11.2124
態度	-11.2125
ゴール	-11.2128
うそ	-11.2128
▁pure	-11.2129
プレイ	-11.2129
作品	-11.213
たくて	-11.2132
▁rob	-11.2135
待っている	-11.214
悲し	-11.2144
▁dealing	-11.2146
を求める	-11.2147
ティング	-11.2147
驚き	-11.2151
▁former	-11.2155
前から	-11.2155
トゥー	-11.2156
陰	-11.2156
審判	-11.2162
豚	-11.2162
メキシコ	-11.2162
版	-11.2162
イギリス	-11.2162
▁Relax	-11.2162
選択肢	-11.2162
けれど	-11.2162
散歩	-11.2162
▁dwell	-11.2164
▁shower	-11.2165
出来て	-11.2168
ダウン	-11.2169
子供を	-11.2169
ツール	-11.2169
ごめん	-11.2171
白い	-11.2171
from	-11.2174
変数	-11.2179
になっている	-11.2179
ボード	-11.2186
リード	-11.2188
学校に	-11.2188
証明書	-11.2189
自動	-11.2194
居て	-11.2194
▁どうすれば	-11.2198
▁会えて	-11.2199
望ま	-11.22
専	-11.22
▁neighbor	-11.22
▁expert	-11.2201
始まった	-11.2201
高慢	-11.2201
の仕業	-11.2201
▁ハンク	-11.2201
待機	-11.2202
配置	-11.2202
▁flash	-11.2202
正しかった	-11.2202
▁Greg	-11.2203
▁Quick	-11.2203
▁beast	-11.2203
注文	-11.2206
▁pair	-11.221
可能です	-11.2211
know	-11.2212
国家	-11.2216
いいのか	-11.2222
▁cock	-11.2224
安全な	-11.2225
かもな	-11.2225
▁Matt	-11.2225
スさん	-11.2232
ヘル	-11.2234
修	-11.2238
パターン	-11.2239
▁border	-11.2239
▁experiment	-11.2239
▁apostle	-11.2239
▁Again	-11.2239
▁capture	-11.224
言語	-11.2243
リュ	-11.225
▁hum	-11.225
▁Jen	-11.2251
捨てた	-11.2252
に戻れ	-11.2254
ガル	-11.2254
▁fund	-11.2254
捕まえた	-11.2258
▁signed	-11.226
▁etc	-11.2262
▁やめてくれ	-11.2262
MP	-11.2265
▁OF	-11.2266
世界に	-11.2267
動いて	-11.2269
▁4.0	-11.2271
思い出す	-11.2271
臓	-11.2277
クション	-11.2277
競	-11.2278
▁Security	-11.2278
仕方	-11.2278
申し訳ない	-11.2278
▁beauty	-11.2279
▁William	-11.2279
▁transfer	-11.2279
授業	-11.2279
fetch	-11.2279
▁Hereafter	-11.228
▁Aw	-11.228
遠い	-11.2281
言ってない	-11.2281
トラン	-11.2289
抜き	-11.2293
▁stu	-11.2293
▁slip	-11.2296
あい	-11.2297
いいかな	-11.2298
奥	-11.2305
▁rot	-11.2305
rin	-11.2308
comp	-11.2308
▁Nope	-11.2308
▁Sand	-11.2309
WA	-11.2311
▁paying	-11.2312
▁ありがと	-11.2314
大量	-11.2315
▁Pop	-11.2316
層	-11.2318
雷	-11.2318
▁description	-11.2318
間違った	-11.2318
▁dozen	-11.2318
破滅	-11.2319
$	-11.232
踏み	-11.232
程度	-11.2321
事情	-11.2322
▁chosen	-11.2327
好み	-11.2334
ことがない	-11.2336
▁Many	-11.2337
Type	-11.2341
分らない	-11.2341
思ってた	-11.2344
一族	-11.2352
買って	-11.2353
航	-11.2356
油	-11.2357
▁climb	-11.2357
▁complicated	-11.2357
ヒーロー	-11.2357
贈り物	-11.2357
気づいた	-11.2357
▁square	-11.2357
経済	-11.2357
▁Eddie	-11.2357
ホール	-11.2357
▁defeat	-11.2357
▁Sunday	-11.2357
困難	-11.2358
ナス	-11.2361
乗れ	-11.2362
口座	-11.2362
ヴィン	-11.2363
▁shake	-11.2366
速く	-11.2368
▁growing	-11.2373
TER	-11.2376
▁usual	-11.2377
知りません	-11.2377
詰	-11.2377
ないけど	-11.2378
構わない	-11.2385
コンピュータ	-11.2389
プル	-11.2389
言う事	-11.2392
しようとした	-11.2395
償	-11.2396
泥	-11.2396
column	-11.2397
▁embarrass	-11.2397
ロボット	-11.2397
とんでもない	-11.2397
▁attract	-11.2397
▁Blue	-11.2397
▁forced	-11.2397
▁Trans	-11.2397
世代	-11.2398
換	-11.2398
▁トニー	-11.2398
世界で	-11.2399
今まで	-11.2399
あげて	-11.2403
rage	-11.2404
▁Color	-11.2409
▁アラン	-11.2411
替	-11.2414
現れた	-11.242
phi	-11.2422
を呼んで	-11.2423
学者	-11.2425
係	-11.2436
▁period	-11.2436
医師	-11.2437
最終	-11.2437
▁Uncle	-11.2437
トラブル	-11.2437
▁Break	-11.2437
都合	-11.2438
通報	-11.2438
ャ	-11.2441
▁sentence	-11.2442
残した	-11.2443
マネ	-11.2444
小屋	-11.2444
続く	-11.2446
ましい	-11.2449
なくなって	-11.2453
エー	-11.2456
▁entered	-11.2459
行かなきゃ	-11.246
▁lower	-11.2463
ギー	-11.2467
ボン	-11.247
▁higher	-11.2472
VE	-11.2476
監	-11.2476
福	-11.2476
暑	-11.2476
インストール	-11.2476
▁section	-11.2476
主を畏れる者	-11.2477
覚悟	-11.2477
▁Brother	-11.2477
▁failure	-11.2477
▁forgotten	-11.2477
することができます	-11.2478
▁mix	-11.248
ベルト	-11.2482
老人	-11.2482
▁Beth	-11.2483
このような	-11.2486
言いました	-11.249
▁Said	-11.2491
我ら	-11.2492
テイ	-11.2493
▁Way	-11.2493
お話	-11.2493
▁swim	-11.2493
はずよ	-11.2498
▁Best	-11.25
を教えて	-11.2501
悔	-11.2502
弱い	-11.2504
▁お前には	-11.2505
▁disappeared	-11.2505
行けない	-11.251
lp	-11.2513
▁Ly	-11.2513
誠	-11.2515
凶	-11.2516
▁praise	-11.2516
▁Remove	-11.2516
税	-11.2516
焦	-11.2516
幼	-11.2516
閉じ込め	-11.2517
▁progress	-11.2517
▁Things	-11.2518
されていた	-11.252
ましょうか	-11.252
▁sca	-11.252
▁edge	-11.2522
zo	-11.2524
▁そいつは	-11.2525
おいた	-11.2526
っぽ	-11.2533
▁spy	-11.2535
stand	-11.2535
▁なぜなら	-11.2542
▁Might	-11.2542
くれない	-11.2545
あんな	-11.2547
揺	-11.2555
▁birth	-11.2556
▁Brown	-11.2556
祝福	-11.2556
軍曹	-11.2557
▁hired	-11.2557
▁talent	-11.2557
艦隊	-11.2557
戻ってきた	-11.2558
くせに	-11.2558
▁アダム	-11.2559
渡した	-11.256
行われ	-11.2563
行けば	-11.2564
を起こし	-11.2564
渡せ	-11.2567
▁違うわ	-11.2572
どけ	-11.2572
▁どうしたんだ	-11.2573
▁Ren	-11.2575
▁君ら	-11.2577
code	-11.2577
一生	-11.2577
わたしたちを	-11.2578
▁earn	-11.2581
▁format	-11.2586
▁State	-11.2589
の多くは	-11.259
bul	-11.259
▁Prince	-11.2594
▁hung	-11.2596
診	-11.2596
▁Twi	-11.2597
▁medicine	-11.2597
▁ancient	-11.2597
▁distance	-11.2597
落ちて	-11.2597
▁nightmare	-11.2597
撮影	-11.2597
母さん	-11.2601
▁そうだろ	-11.2606
付けた	-11.2613
速人	-11.2613
uh	-11.2614
与えた	-11.2615
基本	-11.2615
word	-11.2618
▁このまま	-11.2619
冗談	-11.2621
coming	-11.2625
アホ	-11.2627
耐え忍	-11.2629
base	-11.263
awn	-11.2634
こない	-11.2634
layer	-11.2635
朝食	-11.2636
潰	-11.2637
灯	-11.2637
近づく	-11.2637
▁responsibility	-11.2637
猿	-11.2637
▁plot	-11.2637
▁Aren	-11.2638
▁Garden	-11.2638
▁habit	-11.2638
屋根	-11.2638
男と	-11.264
▁chicken	-11.2641
ani	-11.2644
物質	-11.2646
▁insist	-11.2646
MB	-11.2652
お待ち	-11.2652
を与えた	-11.2657
▁wipe	-11.2657
供	-11.2657
hole	-11.2665
▁Soon	-11.2669
▁soft	-11.2671
信者たち	-11.2678
懸	-11.2678
豊	-11.2678
▁Patrick	-11.2678
▁Tokyo	-11.2678
▁citizen	-11.2678
▁folks	-11.2678
卒業	-11.2678
騒ぎ	-11.2679
iding	-11.2679
楽しかった	-11.2679
市場	-11.2679
そんな事	-11.2683
知らん	-11.2683
▁bond	-11.2683
▁otherwise	-11.2684
思っている	-11.2685
▁私はその	-11.2688
吹き	-11.2691
去って	-11.2694
追いかけ	-11.2697
あれば	-11.2697
▁Dead	-11.2699
▁protection	-11.2699
試して	-11.271
▁touched	-11.271
暮	-11.2716
part	-11.2717
▁interrupt	-11.2719
▁stood	-11.2719
スクリプト	-11.2719
▁Happy	-11.2719
ワトソン	-11.2719
幸福	-11.2719
惨	-11.2719
東京	-11.2719
▁Richard	-11.2719
利益	-11.2719
▁recall	-11.272
対応	-11.272
それとも	-11.272
udi	-11.2725
▁professional	-11.2725
▁lack	-11.2726
目撃者	-11.2726
▁Whil	-11.2727
ある者	-11.2727
▁Part	-11.2731
噛	-11.2737
▁mag	-11.2741
▁iron	-11.2741
▁ハリー	-11.2745
みたいね	-11.2745
open	-11.2745
現場に	-11.2745
を入力	-11.2749
イヤー	-11.2749
▁backup	-11.2757
	-11.2759
傾	-11.2759
▁blessing	-11.276
▁communication	-11.276
▁excellent	-11.276
五	-11.276
かも知れない	-11.276
▁すいません	-11.276
▁rush	-11.276
▁airport	-11.2761
モデル	-11.2765
を開始	-11.2769
▁scare	-11.2773
パワー	-11.278
ないのである	-11.2782
▁Kate	-11.2784
▁そうだよ	-11.2788
▁chop	-11.2789
酷	-11.279
▁何だよ	-11.279
city	-11.279
歩き	-11.2792
疲れて	-11.2792
rine	-11.2794
▁Sea	-11.2795
マスク	-11.2796
貨	-11.2801
パラメータ	-11.2801
▁appointment	-11.2801
▁freedom	-11.2801
選挙	-11.2801
▁sweat	-11.2801
メートル	-11.2801
▁unjust	-11.2802
を味わ	-11.2804
正気	-11.2804
合わない	-11.2805
する必要がある	-11.2806
日前	-11.2808
校	-11.281
生物	-11.2811
らしく	-11.2812
▁lately	-11.2812
安全だ	-11.2816
自分たち	-11.2817
ですよね	-11.2823
焼き	-11.2829
▁pie	-11.283
だけじゃない	-11.2832
そうする	-11.2835
▁それって	-11.2837
を殺して	-11.2838
国民	-11.2838
到	-11.2839
ヒル	-11.2839
恵	-11.2839
志	-11.2841
猶予	-11.2842
	-11.2842
脚	-11.2842
▁buried	-11.2842
椅子	-11.2842
ギャング	-11.2842
▁planned	-11.2844
▁describe	-11.2845
▁repent	-11.2846
そういう	-11.2846
社長	-11.2847
進む	-11.2849
▁Thought	-11.2849
は無理だ	-11.2853
wrap	-11.2856
▁rare	-11.2866
見てくれ	-11.2866
クソ野郎	-11.2867
▁Evan	-11.287
ローマ	-11.287
▁designed	-11.2871
ロウ	-11.2871
を信じて	-11.2872
囚人	-11.2877
徒	-11.2878
動かない	-11.2879
少しも	-11.2881
送る	-11.2882
浄	-11.2883
モジュール	-11.2883
▁custody	-11.2884
▁smoking	-11.2884
かもしれません	-11.2884
称	-11.2884
▁channel	-11.2884
閉鎖	-11.2884
ドラッグ	-11.2884
厳しい	-11.2884
600	-11.2885
仕掛け	-11.2885
▁chest	-11.2886
釣り	-11.2887
ポリ	-11.2887
飛んで	-11.2889
ui	-11.2896
▁Pan	-11.2899
▁あの人	-11.2901
その間	-11.2903
さあ	-11.2905
求	-11.2907
少ない	-11.2908
position	-11.2911
▁Die	-11.2912
が多い	-11.2915
まれる	-11.2916
わよね	-11.2918
を手に入れ	-11.2919
伝えた	-11.292
行くぞ	-11.2923
PS	-11.2925
Ma	-11.2925
▁さっさと	-11.2925
施し	-11.2925
世紀	-11.2926
▁director	-11.2928
▁staff	-11.2928
戦士	-11.2929
▁Jones	-11.293
▁ブース	-11.293
あいつ	-11.2933
▁oil	-11.2934
ggle	-11.2936
開く	-11.2937
走って	-11.294
▁rebel	-11.2942
気に入った	-11.2942
一切	-11.2946
機嫌	-11.2946
ander	-11.2948
番目の	-11.2955
降りて	-11.2961
させろ	-11.2961
大切	-11.2961
途中	-11.2962
略	-11.2966
輪	-11.2966
雲	-11.2967
▁assassin	-11.2967
▁borrow	-11.2967
有難う	-11.2967
▁Forgive	-11.2967
ひどく	-11.2967
投資	-11.2967
▁tongue	-11.2967
▁employee	-11.2968
▁connected	-11.2969
▁committed	-11.2969
祖先	-11.297
を持った	-11.297
正当	-11.297
怒って	-11.297
センター	-11.2971
続き	-11.2974
になったら	-11.2977
すぎて	-11.2982
▁invited	-11.2987
▁Mac	-11.2989
▁いいかい	-11.2989
過ぎた	-11.2993
であれ	-11.2997
をかけて	-11.2998
報告書	-11.3001
する必要があります	-11.3002
じゃねえ	-11.3004
手伝ってくれ	-11.3008
ヨーロッパ	-11.3009
歴	-11.3009
▁Anybody	-11.3009
▁Tomorrow	-11.3009
▁technology	-11.3009
滑	-11.3009
▁import	-11.3009
飛ぶ	-11.301
▁ケイト	-11.301
国際	-11.3011
ぶっ	-11.3013
▁アレク	-11.3015
運動	-11.3016
Why	-11.3019
NY	-11.3019
悲しい	-11.3021
▁rub	-11.3025
キャンプ	-11.3025
▁fixed	-11.3026
やれる	-11.3026
変わって	-11.3027
何年も	-11.3028
かかり	-11.3035
起きてる	-11.3037
ペル	-11.3037
▁expecting	-11.3039
頑	-11.3051
砂	-11.3051
▁According	-11.3051
アイデア	-11.3051
倉庫	-11.3051
一時	-11.3051
▁creation	-11.3051
支持	-11.3052
をつけて	-11.3052
機密	-11.3054
▁Calm	-11.3056
▁winter	-11.3059
▁directly	-11.3063
と言ってた	-11.3064
▁Hor	-11.3066
▁discovered	-11.3066
▁hanging	-11.3071
▁Char	-11.3074
star	-11.3076
すべきだ	-11.3078
▁Mum	-11.3085
▁obvious	-11.3086
天使たち	-11.3086
▁outta	-11.3088
シート	-11.3089
活	-11.309
識	-11.309
農	-11.3093
·	-11.3094
▁Apparently	-11.3094
▁Either	-11.3094
▁library	-11.3094
▁miracle	-11.3094
▁sample	-11.3094
▁シャーロック	-11.3094
スペイン	-11.3094
奇跡	-11.3094
▁Change	-11.3094
強制	-11.3096
長い間	-11.3097
失礼	-11.31
しっかり	-11.3103
▁しかも	-11.3103
▁Game	-11.3105
だがかれら	-11.3107
タグ	-11.3111
ender	-11.3112
人だった	-11.3113
詰め	-11.3114
TE	-11.3116
PC	-11.3118
注目	-11.3123
やられた	-11.3125
敬	-11.3135
井	-11.3136
エージェント	-11.3136
▁Almost	-11.3136
双	-11.3136
▁manifest	-11.3136
丶	-11.3136
始末	-11.3136
▁pants	-11.3136
▁punch	-11.3138
▁Guard	-11.3139
公正	-11.3139
▁tower	-11.3141
やがった	-11.3142
授	-11.3142
▁Johnny	-11.3143
すぎた	-11.3146
わたしたちが	-11.3146
▁Marty	-11.3149
▁selling	-11.3151
そんなこと	-11.3152
盗み	-11.3152
ガイ	-11.3153
▁tag	-11.3163
カイ	-11.3165
数日	-11.3165
しておく	-11.317
考えてた	-11.3174
域	-11.3177
安定	-11.3177
甦	-11.3179
セッション	-11.3179
▁frame	-11.3179
観察	-11.318
▁critic	-11.318
インポート	-11.318
同士	-11.3182
光る	-11.3192
path	-11.32
▁screw	-11.32
ようだな	-11.3203
認める	-11.3205
optional	-11.3211
タブ	-11.3216
含まれ	-11.3219
人質	-11.3219
球	-11.322
尾	-11.322
棄	-11.3221
▁community	-11.3222
▁families	-11.3222
▁identity	-11.3222
▁pilot	-11.3222
▁electric	-11.3222
▁clever	-11.3222
▁social	-11.3222
期限	-11.3223
スタイル	-11.3224
解除	-11.3224
自信	-11.3224
美月	-11.3227
▁Madam	-11.3228
ude	-11.3228
有名	-11.3233
しなきゃ	-11.3237
ぶり	-11.3239
▁そうなの	-11.3239
▁Wake	-11.3242
を愛してる	-11.3243
か分からない	-11.3246
ォ	-11.3252
▁Auto	-11.326
オフ	-11.326
見せる	-11.3261
フリ	-11.3261
▁Jon	-11.3263
戻す	-11.3264
▁Number	-11.3265
▁quarter	-11.3265
幽霊	-11.3265
▁shift	-11.3265
▁pardon	-11.3265
救助	-11.3266
修正	-11.3266
メニュー	-11.3268
身元	-11.327
▁cheat	-11.327
荷	-11.3272
▁ここだ	-11.3273
奇妙な	-11.3273
わたしの主	-11.3273
▁national	-11.3275
捨てる	-11.3284
らせた	-11.3285
▁他にも	-11.3286
突き止め	-11.3287
ヘリ	-11.3288
シャル	-11.3288
▁hunting	-11.3292
番だ	-11.3294
向かってる	-11.3294
OS	-11.33
やめろ	-11.3301
▁Land	-11.3301
を変える	-11.3305
出血	-11.3306
賛	-11.3308
してるのか	-11.3308
営	-11.3308
雑	-11.3308
幕	-11.3308
▁including	-11.3308
▁response	-11.3308
▁biggest	-11.3308
▁Word	-11.3308
▁debt	-11.3309
▁Left	-11.3311
▁Julia	-11.3316
不幸	-11.3318
▁あの男	-11.3321
▁witnesses	-11.3322
▁本物の	-11.3323
置く	-11.3324
暗殺	-11.3336
と言うのか	-11.3338
ナイト	-11.3338
▁Reg	-11.3339
背中	-11.334
速度	-11.334
飲み物	-11.3341
死者	-11.3342
▁painting	-11.3344
本部	-11.3348
針	-11.3352
▁horrible	-11.3352
▁intelligence	-11.3352
▁incident	-11.3352
▁specified	-11.3352
暗闇	-11.3352
▁Shoot	-11.3352
▁manner	-11.3355
したかった	-11.336
電話する	-11.3367
nar	-11.337
▁currently	-11.3372
撃たれ	-11.3375
▁Eh	-11.3376
働いてる	-11.3377
泣	-11.3378
カット	-11.338
来たら	-11.3381
増え	-11.3383
ori	-11.3386
▁spare	-11.3388
▁あそこに	-11.3391
締め	-11.3392
▁Mal	-11.3392
獄	-11.3393
回り	-11.3394
孤児	-11.3395
	-11.3395
塗	-11.3395
▁Children	-11.3395
▁Neither	-11.3395
▁license	-11.3395
ポケット	-11.3395
▁consult	-11.3395
ラジオ	-11.3395
文句	-11.3395
▁sharp	-11.3396
チュ	-11.3397
▁mini	-11.3397
決断	-11.3398
小説	-11.34
皆さん	-11.3404
されていません	-11.3406
▁sooner	-11.3406
汚い	-11.3416
っちゃった	-11.3419
植	-11.342
価値がある	-11.3421
する前に	-11.3422
▁その通りだ	-11.3431
叩	-11.3431
lish	-11.3432
間違いなく	-11.3434
▁harder	-11.3436
祈	-11.3438
から出て	-11.3438
`	-11.3439
お嬢さん	-11.3439
▁intention	-11.3439
▁Islam	-11.3439
暗号化	-11.344
訪問	-11.344
配列	-11.344
ALL	-11.3443
▁pee	-11.3444
奥様	-11.3444
ule	-11.3445
と思っていた	-11.3446
ここに来る	-11.3451
face	-11.3453
何て	-11.3456
▁menu	-11.3464
rag	-11.3465
指定した	-11.3475
飲んだ	-11.348
▁End	-11.3482
▁falling	-11.3482
候	-11.3483
▁stronger	-11.3483
遇	-11.3483
即	-11.3483
▁Friday	-11.3483
▁Kyle	-11.3483
意志	-11.3484
気づか	-11.3485
表現	-11.3485
▁Quran	-11.3486
メディア	-11.3486
▁extremely	-11.3486
分かりません	-11.3492
わからん	-11.3496
conv	-11.3498
ミリ	-11.3501
gle	-11.3512
進んで	-11.3513
Who	-11.3517
立派な	-11.3517
であることを	-11.3524
▁eh	-11.3525
像	-11.3525
再生	-11.3526
砲	-11.3527
▁tracking	-11.3527
暇	-11.3527
遠慮	-11.3527
▁environment	-11.3528
憶えて	-11.3528
▁Kevin	-11.3528
▁Zoe	-11.3528
小僧	-11.3528
決まって	-11.3529
着陸	-11.353
挙げ	-11.3534
ブス	-11.3536
かれて	-11.3544
▁cab	-11.3545
75	-11.3548
だがアッラーは	-11.3556
教えた	-11.3559
払	-11.3564
timate	-11.3564
液	-11.3567
港	-11.3569
飲め	-11.357
▁マジで	-11.3571
さないと	-11.3571
▁engineer	-11.3571
蹴	-11.3572
▁circle	-11.3572
▁Error	-11.3572
▁maintain	-11.3572
▁Glad	-11.3573
追放	-11.3574
self	-11.3575
我々が	-11.3578
どうなった	-11.358
わが印	-11.358
というのは	-11.3581
番組	-11.3584
見つけて	-11.3584
持ってきた	-11.3585
役に立つ	-11.3586
▁Doug	-11.359
mination	-11.3592
戻らない	-11.3606
不足	-11.3606
マイク	-11.3608
界	-11.3609
コル	-11.361
彼らが	-11.361
How	-11.3614
▁Believe	-11.3616
足りない	-11.3616
▁jack	-11.3616
▁shadow	-11.3617
イベント	-11.3617
司令官	-11.3617
▁Cisco	-11.3617
特殊	-11.3617
▁kingdom	-11.3617
領域	-11.3617
▁Hal	-11.3618
▁そしたら	-11.3618
▁drone	-11.3619
子孫	-11.3619
殺し屋	-11.362
年代	-11.3621
悪いこと	-11.3625
▁よくやった	-11.3625
これらの者は	-11.3627
以下の	-11.3631
Al	-11.3634
▁burning	-11.3635
47	-11.3635
▁Vo	-11.3643
▁Real	-11.3644
▁逃げろ	-11.3647
寂	-11.3661
▁Although	-11.3661
▁Window	-11.3661
▁yöu	-11.3661
塔	-11.3661
警戒	-11.3662
孤独	-11.3662
▁cheap	-11.3662
述べ	-11.3662
保管	-11.3662
▁grace	-11.3662
を殺そうと	-11.3662
興味深い	-11.3662
変わり	-11.3666
そのような	-11.3666
を開く	-11.3666
地元	-11.3669
シティ	-11.3671
スキャン	-11.3672
結婚する	-11.3672
見えて	-11.3674
学んだ	-11.3677
カリ	-11.3678
▁Wise	-11.3679
いただき	-11.368
が起きた	-11.3682
Mail	-11.3682
ころ	-11.3686
の言う通り	-11.369
と呼んで	-11.3692
人形	-11.3692
付き合って	-11.3695
ガード	-11.3698
手配	-11.3699
住んでる	-11.3701
ネス	-11.3703
▁prince	-11.3703
▁Cri	-11.3703
あそこ	-11.3704
露	-11.3706
イメージ	-11.3706
典	-11.3706
湖	-11.3706
姫	-11.3706
▁potential	-11.3706
▁treasure	-11.3706
▁announce	-11.3707
▁burden	-11.3707
▁denied	-11.3707
▁desert	-11.3707
▁wives	-11.3707
天才	-11.3707
▁Tyler	-11.3708
▁jacket	-11.3708
▁plate	-11.371
業火	-11.371
▁Alec	-11.371
▁dressed	-11.3715
▁directory	-11.3717
両手	-11.3718
▁billion	-11.372
unit	-11.3722
寒い	-11.3724
インド	-11.3728
払い	-11.3728
YOU	-11.3737
来週	-11.3738
▁心配するな	-11.3742
になりました	-11.3744
麻	-11.3747
持て	-11.375
▁corrected	-11.3751
札	-11.3752
▁Special	-11.3752
▁coordinate	-11.3752
▁refuge	-11.3752
▁surgery	-11.3752
ワシントン	-11.3752
▁material	-11.3752
▁flesh	-11.3752
▁orphan	-11.3752
緊張	-11.3752
▁creep	-11.3752
演奏	-11.3752
婚約	-11.3752
誠実	-11.3752
言われて	-11.3753
単なる	-11.3753
発射	-11.3753
訴え	-11.3754
消えて	-11.3754
もう一度	-11.3755
余地	-11.3755
▁victory	-11.3755
▁Image	-11.3756
すり	-11.3764
▁highly	-11.3766
ずつ	-11.3771
この国	-11.3776
プレー	-11.3778
ものがある	-11.3779
問題だ	-11.3779
抑え	-11.3783
されてた	-11.3784
衣	-11.3797
hear	-11.3797
▁California	-11.3797
近づいて	-11.3797
徳井	-11.3797
▁Louis	-11.3798
新たな	-11.3798
ウェイン	-11.3801
state	-11.3803
huh	-11.3805
奴等	-11.3805
ジェダイ	-11.3808
▁robot	-11.3809
サンタ	-11.381
寝た	-11.381
必要があります	-11.381
聞かない	-11.3812
バージョン	-11.3812
辛い	-11.3812
と言ってる	-11.3813
▁お腹	-11.3813
▁fri	-11.3816
▁よせ	-11.3817
▁この件	-11.3817
▁Grab	-11.3823
メモ	-11.3825
を調べて	-11.3826
無いわ	-11.3834
ニューヨーク	-11.3839
▁Kim	-11.3839
▁attorney	-11.3843
▁explosion	-11.3843
▁journey	-11.3843
▁bleeding	-11.3843
休憩	-11.3843
▁Bauer	-11.3843
拡張	-11.3843
▁flag	-11.3843
審判の日	-11.3843
防衛	-11.3843
▁Jedi	-11.3844
伝言	-11.3845
▁carrying	-11.3846
▁Alice	-11.3847
▁treatment	-11.3848
ウェブ	-11.3851
返せ	-11.386
婦人	-11.3862
La	-11.3867
▁hill	-11.3867
▁Gold	-11.387
佐	-11.3873
バンド	-11.3879
考	-11.3879
▁Ce	-11.388
▁removed	-11.3881
房	-11.3883
んのか	-11.3884
OL	-11.3887
this	-11.3888
旧	-11.3889
罠	-11.3889
藤	-11.3889
	-11.3889
▁monitor	-11.3889
▁motherfucker	-11.3889
▁policy	-11.3889
▁recommend	-11.3889
▁Found	-11.3889
詳しく	-11.3889
▁memories	-11.3889
▁transgress	-11.3889
完成	-11.3889
接近	-11.389
爆破	-11.389
を選んだ	-11.389
道具	-11.3891
負傷	-11.3892
reference	-11.3895
rah	-11.3898
▁僕らは	-11.3905
聞かせて	-11.3906
▁Den	-11.3914
善行	-11.3915
EX	-11.3915
寒	-11.3917
だがかれらは	-11.3919
この世	-11.3919
つもりだった	-11.392
わせて	-11.3922
きり	-11.3922
王国	-11.3926
聞こえない	-11.3927
を犯した	-11.3934
恥ずかし	-11.3935
▁Sergeant	-11.3935
呼ばれて	-11.3935
Peace	-11.3935
武装	-11.3935
▁すまん	-11.3935
▁Internet	-11.3935
おじさん	-11.3935
邪悪	-11.3936
。)「	-11.3936
含	-11.3939
要らない	-11.394
ヶ月前	-11.3941
が必要なの	-11.3941
ってしまった	-11.3948
▁エディ	-11.3948
ノン	-11.3952
▁Rock	-11.3956
▁Nah	-11.3957
輸	-11.3981
たくなかった	-11.3981
了	-11.3981
▁ジミー	-11.3981
危機	-11.3982
に会いに	-11.3984
▁nuts	-11.3985
▁ジェシー	-11.3986
▁treated	-11.3987
願う	-11.3989
思います	-11.3992
42	-11.3993
▁CO	-11.3997
▁Aye	-11.3999
専門家	-11.4002
近所	-11.4008
同時に	-11.4009
▁頼むよ	-11.4013
赤い	-11.4022
遣	-11.4022
婚	-11.4026
謀	-11.4027
従業員	-11.4028
卑	-11.4028
机	-11.4028
▁background	-11.4028
▁remote	-11.4028
溶	-11.4028
▁monkey	-11.4028
craft	-11.4028
▁resist	-11.4028
夏美	-11.4029
見せてくれ	-11.403
▁Lisa	-11.4034
認	-11.4038
▁pool	-11.4038
▁Pick	-11.4039
ザン	-11.4043
出来なかった	-11.4045
rmal	-11.4046
▁earned	-11.4053
▁perfectly	-11.4055
ological	-11.4057
辛	-11.4059
過ごした	-11.4061
時まで	-11.4065
▁これは何	-11.4066
ちまった	-11.4067
▁refer	-11.4068
査	-11.4073
傍	-11.4074
▁Secret	-11.4074
うんざり	-11.4074
ご存知	-11.4074
▁Arthur	-11.4074
いい加減	-11.4074
▁SAW	-11.4074
見つからない	-11.4074
詳しい	-11.4074
▁Aaron	-11.4074
▁nurse	-11.4074
逃亡	-11.4075
▁entry	-11.4075
転送	-11.4076
フォント	-11.4076
▁mouse	-11.4077
▁panic	-11.4079
ハウス	-11.4081
▁'%1	-11.4082
あたり	-11.4082
ハード	-11.4082
▁Eight	-11.4083
サラ	-11.4089
レース	-11.4091
を撃った	-11.4096
知らず	-11.4104
っちゃう	-11.4105
御恵み	-11.4108
議会	-11.4109
賢	-11.4109
代わり	-11.4113
天気	-11.4116
ゃ	-11.412
衛	-11.412
痕	-11.4121
	-11.4121
舌	-11.4121
遂	-11.4121
▁assistant	-11.4121
▁brilliant	-11.4121
▁compromise	-11.4121
かもしれん	-11.4121
〝	-11.4121
怯	-11.4121
羊	-11.4121
教育	-11.4122
選ばれ	-11.4122
最新	-11.4123
▁grid	-11.4123
大尉	-11.4125
▁recite	-11.4127
最高だ	-11.4129
ゆっくり	-11.4129
主義	-11.413
▁escaped	-11.4134
向かって	-11.4135
berg	-11.4135
覚えてない	-11.4137
未だ	-11.4143
65	-11.4147
ココ	-11.4151
▁whenever	-11.4151
出ない	-11.4155
▁shown	-11.4155
明確	-11.4156
▁Santa	-11.4157
55	-11.416
2,3	-11.416
待った	-11.416
ファック	-11.4163
▁Sub	-11.4165
▁metal	-11.4166
▁Date	-11.4167
復活	-11.4168
▁cancel	-11.4168
▁Excellent	-11.4168
▁excited	-11.4168
扉	-11.4168
▁Message	-11.4168
ダイアログ	-11.4169
おいしい	-11.4169
悪夢	-11.4169
選んだ	-11.4174
溺れ	-11.4176
▁HE	-11.4176
rov	-11.4178
上がる	-11.4201
もあった	-11.4202
天国	-11.4202
1000	-11.4207
lude	-11.421
rou	-11.4212
を買って	-11.4213
▁spa	-11.4214
用心	-11.4215
デス	-11.4216
ムハンマド	-11.4216
互	-11.4216
ouch	-11.4216
如何に	-11.4216
幅	-11.4216
オブジェクト	-11.4216
薄	-11.4216
▁fortune	-11.4216
▁tunnel	-11.4216
▁genius	-11.4216
烈	-11.4216
▁clue	-11.4216
▁giant	-11.4216
放射	-11.4217
公平	-11.4218
ビット	-11.4222
▁Kind	-11.4222
逃れ	-11.4222
静かに	-11.4228
やめた	-11.423
という事	-11.4231
十分な	-11.4233
外出	-11.4233
atu	-11.4239
▁personally	-11.4246
を送る	-11.4251
2000	-11.4255
▁mid	-11.4257
選手	-11.4263
▁assault	-11.4263
▁scientist	-11.4263
芝	-11.4263
趣味	-11.4263
拘束	-11.4264
▁dialog	-11.4264
register	-11.4264
▁curious	-11.4264
農場	-11.4265
KE	-11.4265
立証	-11.4266
ショック	-11.4267
貸し	-11.4269
出て行く	-11.427
主の御	-11.4275
与	-11.4278
バイト	-11.4282
new	-11.4287
▁reveal	-11.4289
私たちに	-11.4295
建て	-11.4297
分かっている	-11.4308
頼んで	-11.4308
▁employ	-11.431
拒	-11.4311
自転車	-11.4311
詐欺	-11.4311
▁previous	-11.4311
ウイルス	-11.4311
▁filter	-11.4311
候補	-11.4312
▁argue	-11.4312
設計	-11.4312
喜ぶ	-11.4312
反逆	-11.4313
チーズ	-11.4314
午前	-11.4314
ステキ	-11.4317
▁Other	-11.432
▁Each	-11.4321
暗い	-11.4325
▁Brad	-11.4325
▁アラ	-11.4333
離せ	-11.4333
に従い	-11.4334
800	-11.4335
▁grant	-11.4338
zu	-11.4344
カーン	-11.4347
▁spin	-11.4348
▁心配ない	-11.4348
▁Liz	-11.4356
連絡する	-11.4358
商	-11.4358
恨	-11.4359
▁jealous	-11.4359
▁relative	-11.4359
卿	-11.4359
厄介	-11.4359
涙	-11.4359
透	-11.4359
投票	-11.4359
警報	-11.436
ダウンロード	-11.436
登録	-11.436
更新	-11.436
▁blast	-11.436
▁Senator	-11.436
れていた	-11.4361
▁nail	-11.4362
▁strip	-11.4362
共通	-11.4363
優しい	-11.4363
使える	-11.4364
明らか	-11.4365
ゲート	-11.4365
▁DO	-11.437
放送	-11.4371
▁spoken	-11.4375
独り	-11.4375
lash	-11.4377
導く	-11.4378
color	-11.4381
中心	-11.4384
しもべ	-11.4386
▁tab	-11.439
▁Helen	-11.4392
▁managed	-11.4393
出ろ	-11.4398
救え	-11.4402
撃って	-11.4403
ペット	-11.4404
思い出した	-11.4404
RY	-11.4406
畏れ	-11.4406
▁served	-11.4407
	-11.4407
複	-11.4408
館	-11.4408
▁ありえ	-11.4408
没	-11.4408
▁みなさん	-11.4408
子供の頃	-11.4408
▁dispute	-11.4409
ville	-11.4409
▁ちょっと待て	-11.4411
▁squ	-11.442
或る	-11.4424
離れる	-11.4426
信じられない	-11.4437
唯一	-11.4437
離れた	-11.4441
結婚した	-11.4446
は何ですか	-11.4452
ホワイト	-11.4456
洋	-11.4456
HTML	-11.4456
▁advantage	-11.4456
▁confident	-11.4456
手伝う	-11.4456
腰	-11.4456
▁Snow	-11.4456
なかなか	-11.4457
▁conduct	-11.4458
権力	-11.4458
▁woke	-11.4459
を助けた	-11.4461
ドリー	-11.4462
▁season	-11.4462
こいつ	-11.4462
▁Pass	-11.4462
見張って	-11.4463
動機	-11.4463
▁alert	-11.4464
を付けて	-11.4468
iko	-11.447
▁Thou	-11.4471
取り戻	-11.4472
▁apple	-11.4473
運転手	-11.4473
ここに居る	-11.4473
▁最初は	-11.4477
言ったこと	-11.4478
疲れた	-11.4479
▁however	-11.448
Hi	-11.4483
▁pea	-11.4487
わけない	-11.4488
DNA	-11.449
pound	-11.4495
▁comfort	-11.4503
若者	-11.4504
	-11.4505
述	-11.4505
▁Washington	-11.4505
▁judgment	-11.4505
申し訳ありません	-11.4505
財布	-11.4505
経営	-11.4506
ドーム	-11.4513
▁ビリー	-11.4518
やらない	-11.4518
▁$1	-11.4525
ローズ	-11.4529
すごく	-11.4531
ふり	-11.4533
▁sport	-11.4534
そう言う	-11.4546
▁リズボン	-11.4547
rab	-11.4548
otic	-11.455
律	-11.4553
沢	-11.4553
録	-11.4553
▁signature	-11.4554
▁stomach	-11.4554
あきらめ	-11.4554
SQL	-11.4554
▁loyal	-11.4554
▁valid	-11.4554
スクリーン	-11.4554
集団	-11.4555
制限	-11.4555
▁ご主人	-11.4556
運んで	-11.4557
交通	-11.4559
疲れ	-11.456
されていない	-11.4567
ゴン	-11.4568
▁castle	-11.4569
▁scary	-11.4571
成功した	-11.4572
▁bull	-11.4573
▁custom	-11.4574
死なせ	-11.4575
85	-11.4577
創った	-11.458
▁accepted	-11.4581
黒い	-11.4582
▁Walk	-11.4585
ヤン	-11.4589
▁bath	-11.4591
text	-11.4597
▁正直に	-11.4597
PO	-11.4598
▁warned	-11.4601
様々な	-11.4603
灰	-11.4603
▁Matthew	-11.4603
▁believing	-11.4603
▁diamond	-11.4603
▁unknown	-11.4603
▁vacation	-11.4603
コナー	-11.4603
▁neighborhood	-11.4604
衛星	-11.4604
▁oath	-11.4604
イタリア	-11.4604
慎重に	-11.4605
おかしく	-11.4605
警備員	-11.4606
の言うとおり	-11.4606
▁Sister	-11.4606
▁blew	-11.4606
一言	-11.4607
学ぶ	-11.4612
▁laid	-11.4612
▁Sur	-11.4612
ぶち	-11.4615
あるもの	-11.4616
殺さない	-11.4618
駆け	-11.462
ジェイ	-11.4622
もちろん	-11.4633
へ行って	-11.4637
オス	-11.4645
▁suffering	-11.4652
人気	-11.4652
展	-11.4652
	-11.4653
臨	-11.4653
▁chastisement	-11.4653
▁constant	-11.4653
▁especially	-11.4653
▁expensive	-11.4653
▁surrender	-11.4653
▁symbol	-11.4653
▁silver	-11.4653
魅力的	-11.4653
▁fuel	-11.4653
火獄	-11.4654
activate	-11.4654
ius	-11.4654
失望	-11.4655
ほぼ	-11.4655
創られた	-11.4657
持つ	-11.4658
▁Super	-11.4659
▁そのとおり	-11.4661
そこにいる	-11.4662
電車	-11.4663
下がれ	-11.4665
▁どうかした	-11.4666
▁Temp	-11.4667
▁いったい	-11.4668
してしまった	-11.4669
▁slowly	-11.4673
miss	-11.4675
神父	-11.4681
結局	-11.4687
全然	-11.4687
役に立	-11.4687
かれらの中	-11.4692
走り	-11.4694
%1	-11.4699
▁Mind	-11.4701
劣	-11.4702
▁Control	-11.4703
▁Maggie	-11.4703
▁counsel	-11.4703
▁facility	-11.4703
考慮	-11.4703
燃料	-11.4703
▁ショーン	-11.4703
笑って	-11.4703
伝説	-11.4704
フラッシュ	-11.4704
記念	-11.4704
家畜	-11.4704
▁お前達	-11.4709
を必要とし	-11.471
98	-11.471
捜し	-11.4711
いつでも	-11.4715
ヴァー	-11.4715
置いた	-11.4717
気に入って	-11.4719
▁update	-11.4723
ことが出来る	-11.4724
▁convinced	-11.4726
受信	-11.473
記者	-11.4733
fold	-11.4735
ィー	-11.4738
喜	-11.4742
ラックス	-11.4743
▁Fall	-11.4745
突っ	-11.4748
▁survived	-11.4749
脈	-11.4752
多神教徒	-11.4752
▁slept	-11.4753
▁violent	-11.4753
忠告	-11.4753
▁ホントに	-11.4753
▁Derek	-11.4753
▁adult	-11.4753
▁submit	-11.4753
令状	-11.4753
推測	-11.4753
▁advise	-11.4753
▁トミー	-11.4753
要請	-11.4754
▁kinda	-11.4755
ゴメン	-11.4756
もらおう	-11.4756
信じてくれ	-11.4758
▁counter	-11.4759
▁Jan	-11.476
新規	-11.4761
ベラ	-11.4762
支え	-11.4762
出口	-11.4763
version	-11.4768
彼氏	-11.4771
▁invite	-11.4779
グラス	-11.4779
来なさい	-11.4781
▁customer	-11.4782
遊んで	-11.4783
話を聞いて	-11.4784
▁mental	-11.4784
良くない	-11.4788
▁Walt	-11.4793
▁Command	-11.4793
▁confirmed	-11.4797
まん	-11.48
▁civil	-11.4802
仰	-11.4802
魅	-11.4803
痛ましい懲罰	-11.4803
へようこそ	-11.4803
パイロット	-11.4803
▁cheese	-11.4803
嫉妬	-11.4803
▁stairs	-11.4803
調整	-11.4804
▁Morgan	-11.4804
留守	-11.4804
▁Also	-11.4807
していません	-11.4811
得ない	-11.4811
助言	-11.482
▁Jake	-11.4823
金曜	-11.4824
▁granted	-11.4826
呼び出し	-11.4827
▁convince	-11.4829
72	-11.483
▁kit	-11.4835
ゲー	-11.4835
モア	-11.4836
born	-11.4837
何も知らない	-11.484
手助け	-11.4842
勝った	-11.4844
▁sudden	-11.4846
汚れ	-11.485
phone	-11.485
▁Unfortunately	-11.4853
▁courage	-11.4853
▁execute	-11.4853
スピード	-11.4853
▁Girl	-11.4853
▁article	-11.4853
認識	-11.4853
故障	-11.4853
▁carried	-11.4853
法廷	-11.4854
座標	-11.4854
援護	-11.4854
ミュー	-11.4854
▁zero	-11.4854
売った	-11.4854
格好	-11.4854
sql	-11.4855
中尉	-11.4855
▁どこへ行く	-11.4855
▁France	-11.4857
▁delivered	-11.4857
▁Goodbye	-11.4858
理解できない	-11.4863
を拒否する	-11.4869
服を着	-11.487
まじ	-11.4876
▁screwed	-11.4879
▁この街	-11.488
地区	-11.4882
となって	-11.4886
world	-11.4895
worth	-11.4895
▁laughing	-11.4897
▁そこまで	-11.4897
ごめんなさい	-11.4898
数学	-11.4899
▁dish	-11.4901
たまえ	-11.4902
帰依	-11.4904
忠誠	-11.4904
▁observe	-11.4904
▁positive	-11.4904
▁solution	-11.4904
奉	-11.4904
宿題	-11.4904
▁stealing	-11.4904
▁torture	-11.4904
▁Search	-11.4905
▁indicate	-11.4905
姉妹	-11.4905
公開	-11.4906
結び	-11.4907
▁Water	-11.4907
▁shout	-11.4908
rite	-11.4911
▁前回	-11.4913
殺人事件	-11.4913
解明	-11.4913
▁クソッ	-11.4914
プール	-11.4916
だめだ	-11.4918
かれらのために	-11.4921
ories	-11.4921
中毒	-11.4925
になろう	-11.493
She	-11.493
▁Read	-11.4932
専門	-11.4933
tti	-11.4939
乗った	-11.4941
scale	-11.4942
んじ	-11.4942
与えられる	-11.4944
周	-11.4949
堅	-11.4955
寛容	-11.4955
盗まれた	-11.4955
▁journal	-11.4955
▁popular	-11.4956
▁WE	-11.4956
▁Pete	-11.4956
▁squad	-11.4957
帝国	-11.4957
▁Inter	-11.4958
▁basement	-11.496
現れ	-11.4964
犯行	-11.4966
右手	-11.4969
ようとする	-11.4973
わかりません	-11.4976
はじめ	-11.4981
バーグ	-11.499
していました	-11.4992
方であられる	-11.4993
ジェリー	-11.4994
▁Amy	-11.4996
トレイ	-11.5
があっても	-11.5004
そのまま	-11.5004
▁confused	-11.5006
監督	-11.5006
塩	-11.5006
故郷	-11.5006
チャンネル	-11.5007
注射	-11.5007
▁Plus	-11.5007
復活の日	-11.5007
▁パトリック	-11.5007
自動的に	-11.5007
どおり	-11.5008
▁Harris	-11.5009
▁二人とも	-11.501
いいけど	-11.5013
▁sweetie	-11.5016
▁Full	-11.5017
途中で	-11.5024
▁Sean	-11.5029
失う	-11.5036
迷い	-11.5047
▁breathing	-11.5047
▁bike	-11.5051
▁actual	-11.5054
孫	-11.5055
屈	-11.5057
妄想	-11.5058
▁guarantee	-11.5058
▁uniform	-11.5058
▁violence	-11.5058
▁Sheriff	-11.5058
▁それでいい	-11.5058
ねばならない	-11.5059
冷静	-11.5059
弾丸	-11.5059
▁closing	-11.5059
▁Tro	-11.5059
妙な	-11.506
▁footage	-11.5061
悲しみ	-11.5061
▁アーサー	-11.5062
続けた	-11.5063
付く	-11.5063
だけでなく	-11.5064
リップ	-11.5067
代表	-11.5071
立派	-11.5072
済んだ	-11.5077
お会い	-11.5078
ディン	-11.5082
foo	-11.5084
であれば	-11.5085
のところに	-11.5091
有名な	-11.5092
かれらは言う	-11.5092
するつもりだ	-11.5093
晴	-11.5093
メモリ	-11.5093
と思うけど	-11.5095
▁asset	-11.5103
世間	-11.5106
踏	-11.5107
吉	-11.511
▁patience	-11.511
▁provision	-11.511
▁variable	-11.511
チケット	-11.511
嘆	-11.511
▁Amanda	-11.511
▁belief	-11.511
▁3.0.	-11.511
▁funeral	-11.511
欲しが	-11.511
▁Careful	-11.511
▁translate	-11.511
あり得ない	-11.511
順調	-11.5111
Man	-11.5111
▁factory	-11.5111
与える	-11.5112
▁ease	-11.5112
の中から	-11.5112
Java	-11.5122
ザック	-11.5123
▁stake	-11.5126
▁Todd	-11.5126
万人	-11.513
▁Ron	-11.5131
気になる	-11.5133
たりしない	-11.5136
答	-11.5137
殺さ	-11.5144
呼びかけ	-11.5144
▁jam	-11.5145
ウェン	-11.5147
locate	-11.5151
▁ごめんね	-11.5154
気がする	-11.516
征	-11.5162
現世の生活	-11.5162
▁anger	-11.5162
▁Second	-11.5162
▁TRUE	-11.5162
▁explanation	-11.5162
▁trunk	-11.5162
▁も参照下さい	-11.5162
スポーツ	-11.5162
華	-11.5162
▁declare	-11.5162
そちら	-11.5162
過ごす	-11.5162
▁ついに	-11.5162
▁multiple	-11.5162
エイリアン	-11.5162
迷惑	-11.5162
つもりです	-11.5162
助かった	-11.5164
優れた	-11.5164
▁Human	-11.5168
▁homework	-11.5168
▁rope	-11.517
科学者	-11.5171
英国	-11.518
家庭	-11.5182
type	-11.5183
と言われ	-11.5184
▁Thor	-11.5192
▁cabin	-11.5193
っぽい	-11.5193
▁リサ	-11.5199
になれば	-11.5202
焼け	-11.5208
▁tax	-11.5211
評	-11.5214
ケガ	-11.5214
泊	-11.5214
ユースフ	-11.5214
▁chocolate	-11.5214
▁supply	-11.5214
パソコン	-11.5214
▁Muslim	-11.5214
ずいぶん	-11.5214
カリフォルニア	-11.5214
▁Laurel	-11.5214
▁lonely	-11.5214
▁こりゃ	-11.5214
▁profit	-11.5214
待たせ	-11.5214
よこせ	-11.5215
▁crush	-11.5215
▁ugly	-11.5216
ええ	-11.5217
もはや	-11.522
気を付け	-11.522
回転	-11.5222
得られ	-11.5222
つまり	-11.5225
ゼロ	-11.5226
分かってない	-11.5231
check	-11.524
NG	-11.5241
ゥ	-11.5242
▁Key	-11.5243
言ってるんだ	-11.5247
するべき	-11.5247
▁HR	-11.5252
明証	-11.5258
変わらない	-11.5263
棒	-11.5266
樹	-11.5267
沿	-11.5267
▁Paradise	-11.5267
▁identify	-11.5267
▁occasion	-11.5267
▁ocean	-11.5267
▁Francis	-11.5267
▁NYPD	-11.5267
芸術	-11.5267
比べ	-11.5267
▁Coming	-11.5267
嘘をついて	-11.5268
いとこ	-11.5272
▁Liber	-11.5273
~	-11.5273
▁role	-11.5274
番目	-11.5277
ジェーン	-11.5279
避	-11.5285
▁tap	-11.5289
売る	-11.529
おります	-11.5299
分かり	-11.5301
▁いいだろう	-11.5302
▁released	-11.5306
ドライバ	-11.5314
狂った	-11.5316
向いて	-11.5319
戒	-11.5319
主を畏れ	-11.5319
冒	-11.532
▁apparently	-11.532
▁frighten	-11.532
attribute	-11.532
▁Africa	-11.532
▁Settings	-11.532
▁achieve	-11.532
▁ルーシー	-11.532
▁気をつけろ	-11.532
泊ま	-11.532
最善	-11.5321
ガラス	-11.5323
年後	-11.5324
を守れ	-11.5325
言わせ	-11.5327
▁bang	-11.5328
のせいじゃない	-11.5333
after	-11.5334
▁Rome	-11.5336
ソース	-11.5337
▁Germany	-11.5338
申し上げ	-11.5339
▁piss	-11.5352
▁pour	-11.5354
滅ぼし	-11.5355
▁Qua	-11.536
邪	-11.5371
気はない	-11.5373
懐	-11.5373
▁colleague	-11.5373
▁desperate	-11.5373
▁federal	-11.5373
▁sneak	-11.5373
宝石	-11.5374
骨折	-11.5374
見当	-11.5376
▁princess	-11.5377
を選択します	-11.5382
実現	-11.5385
重い	-11.5388
▁Gil	-11.5396
信仰して	-11.5398
ベスト	-11.54
▁entirely	-11.5402
ハート	-11.5403
▁becoming	-11.5406
疑って	-11.5409
くそ	-11.5412
段	-11.5414
貰え	-11.5416
▁Won	-11.5424
将	-11.5425
ボロ	-11.5425
条	-11.5426
慈悲深き御方	-11.5426
湾	-11.5426
委	-11.5426
▁political	-11.5426
▁understood	-11.5426
アイテム	-11.5426
剥	-11.5426
▁scratch	-11.5426
▁Rachel	-11.5426
策謀	-11.5427
吉報	-11.5427
▁bedroom	-11.5428
ベイビー	-11.5428
▁ジェイソン	-11.5429
▁Wayne	-11.5429
過ち	-11.543
できれば	-11.5431
運ぶ	-11.5433
▁wallet	-11.5433
VER	-11.5435
ごらん	-11.5435
▁fence	-11.5437
ダイヤ	-11.5437
▁aunt	-11.5438
もしあなたがたが	-11.5439
▁Lance	-11.5441
かの女ら	-11.5441
上げろ	-11.5444
この町	-11.5446
歩け	-11.545
マウス	-11.5451
週間前	-11.5451
何が起こった	-11.5454
遅れて	-11.5455
▁movement	-11.5458
せん	-11.5469
▁Julian	-11.547
ここに居	-11.5475
酸	-11.548
癒	-11.548
▁insurance	-11.548
▁ちくしょう	-11.548
▁silly	-11.548
引っ張	-11.548
動揺	-11.5481
依頼人	-11.5482
▁struck	-11.5482
▁hostage	-11.5483
市長	-11.5484
ソル	-11.5487
と呼ぶ	-11.5487
▁verses	-11.5496
」「	-11.5496
容疑	-11.5499
▁Qui	-11.5501
始めよう	-11.5504
検出	-11.5506
降りる	-11.5506
置け	-11.5509
▁Vol	-11.5512
眠って	-11.5519
アンドレ	-11.5527
▁wherever	-11.553
▁arrange	-11.5532
練	-11.5533
崇	-11.5534
umble	-11.5534
繰り返す	-11.5534
醜	-11.5534
▁Goddamn	-11.5534
▁capital	-11.5534
▁holiday	-11.5534
▁mirror	-11.5534
▁nuclear	-11.5534
▁wisdom	-11.5534
七	-11.5534
紛	-11.5534
▁blank	-11.5534
▁Power	-11.5534
捕らえ	-11.5534
応援	-11.5534
▁stress	-11.5535
容易	-11.5535
極めて	-11.5536
ちゃって	-11.5537
▁Print	-11.5537
過ぎて	-11.5538
時刻	-11.554
救出	-11.5542
怒ってる	-11.5547
吸い	-11.5554
▁こっちへ	-11.5557
mount	-11.557
払った	-11.5571
尋ねた	-11.5578
▁truthful	-11.5583
▁Wouldn	-11.5585
尊	-11.5588
▁Certainly	-11.5589
▁Mexico	-11.5589
▁ambulance	-11.5589
▁honour	-11.5589
▁volunteer	-11.5589
びっくり	-11.5589
ぺ	-11.5589
▁Lannister	-11.5589
▁Major	-11.5589
マネージャ	-11.5589
痕跡	-11.5589
▁おいおい	-11.5591
▁multi	-11.5592
▁delay	-11.5595
金属	-11.5601
▁fallen	-11.5601
▁Guy	-11.5603
▁chase	-11.5604
lick	-11.5609
トロン	-11.5618
やめる	-11.562
見てない	-11.5623
away	-11.5623
現れる	-11.5625
動け	-11.5634
▁express	-11.5639
封	-11.5642
障	-11.5642
徳	-11.5643
裸	-11.5643
菜	-11.5643
▁certificate	-11.5643
▁circumstances	-11.5643
▁eventually	-11.5643
▁Company	-11.5643
▁Original	-11.5643
▁accomplish	-11.5643
ぅ	-11.5643
助かる	-11.5644
▁Graham	-11.5644
▁march	-11.5649
▁Slow	-11.5655
合法	-11.5655
▁abandoned	-11.5658
▁goodbye	-11.5658
▁List	-11.5661
▁Marie	-11.5662
偽り	-11.5663
好きだった	-11.5666
ナチ	-11.5668
られました	-11.5669
▁何でもない	-11.5669
▁何なんだ	-11.5675
▁ruined	-11.5677
話せない	-11.5678
せてくれ	-11.5689
無罪	-11.5693
丁	-11.5696
	-11.5698
ターゲット	-11.5698
▁Column	-11.5698
▁Gentlemen	-11.5698
▁construct	-11.5698
▁tattoo	-11.5698
▁thief	-11.5698
▁オリビア	-11.5698
捕虜	-11.5698
バウアー	-11.5698
▁畜生	-11.5698
伴	-11.5698
▁micro	-11.5698
衝突	-11.5698
ミルク	-11.5698
▁うるさい	-11.5698
▁mood	-11.5699
目を覚ま	-11.5699
要素	-11.5701
アイコン	-11.5702
49	-11.5702
▁thus	-11.5702
当時	-11.5703
▁brand	-11.5704
こう言った	-11.5704
適用	-11.5704
corp	-11.571
▁調子は	-11.5713
ヨー	-11.5718
▁誰なの	-11.5721
青い	-11.5722
OK	-11.5725
やがって	-11.5727
駆	-11.5734
聞かせ	-11.5735
But	-11.5738
ヌーフ	-11.5753
¶	-11.5753
▁celebrate	-11.5753
▁professor	-11.5753
中央	-11.5753
敬意	-11.5754
決まり	-11.5754
戦略	-11.5755
関わって	-11.5756
▁recent	-11.5757
いらっしゃい	-11.5758
ounce	-11.5758
グリム	-11.5759
▁Papa	-11.576
そんなことを	-11.5761
呪い	-11.5762
▁prop	-11.5772
▁レオ	-11.5773
ようになった	-11.5774
止めた	-11.5784
▁leak	-11.5788
一週間	-11.5789
ドゥ	-11.5793
グレイ	-11.5801
束	-11.5809
_$[~	-11.5809
▁conference	-11.5809
こんばんは	-11.5809
細胞	-11.5809
▁Nelson	-11.5809
フォーマット	-11.5809
▁Cooper	-11.5809
▁changing	-11.5809
複数の	-11.5809
▁balance	-11.5809
供給	-11.5809
▁Otherwise	-11.5809
商売	-11.5809
年齢	-11.581
単語	-11.581
▁マギー	-11.5811
▁Larry	-11.5812
▁Death	-11.5813
セイ	-11.5815
▁何が起きた	-11.5815
狂ってる	-11.5815
CC	-11.5817
探してる	-11.5818
▁babe	-11.5819
close	-11.5822
マッチ	-11.5828
会見	-11.5828
agger	-11.583
を表示する	-11.5832
嫌いな	-11.5835
婦	-11.5841
笑顔	-11.5847
300	-11.5848
▁Scar	-11.5848
分かります	-11.5851
代理	-11.5857
▁Jordan	-11.5865
▁entrance	-11.5865
▁newspaper	-11.5865
▁traitor	-11.5865
万有の主	-11.5865
巧	-11.5865
余裕	-11.5865
▁アナタ	-11.5865
限界	-11.5865
▁solid	-11.5865
▁Luke	-11.5868
上がった	-11.587
aries	-11.5875
MO	-11.5876
ジョーンズ	-11.5879
hether	-11.588
ユダヤ人	-11.5886
キミ	-11.5886
気味	-11.5888
確認した	-11.5892
▁Drive	-11.5895
あたし	-11.5899
本当にあなたは	-11.5906
覧	-11.5911
▁fur	-11.5916
ランチ	-11.5917
コフ	-11.5918
訊	-11.5921
▁Eva	-11.5921
▁happiness	-11.5921
▁individual	-11.5921
▁Friend	-11.5921
ミサイル	-11.5921
▁beneath	-11.5921
▁companion	-11.5921
フード	-11.5921
雌	-11.5921
▁pride	-11.5921
連続	-11.5922
電源	-11.5922
▁sugar	-11.5922
質問に答え	-11.5922
あまりにも	-11.5923
▁Susan	-11.5923
▁pump	-11.5924
盗む	-11.5926
ッシャー	-11.5926
▁artist	-11.5927
▁Unto	-11.5927
判った	-11.5927
付いた	-11.5928
災い	-11.593
レーン	-11.5937
▁いやいや	-11.5938
正解	-11.5944
正常	-11.5956
#	-11.5958
共同	-11.5959
誓って	-11.5963
エア	-11.5965
▁Gary	-11.5966
別れた	-11.5969
▁ジュリア	-11.5976
浴	-11.5977
拝	-11.5977
崩	-11.5977
八	-11.5977
▁Especially	-11.5977
▁Joseph	-11.5977
▁equipment	-11.5977
▁Bruce	-11.5978
▁Gordon	-11.5978
▁inherit	-11.5978
▁satellite	-11.5978
▁struggle	-11.5978
▁tradition	-11.5978
六	-11.5978
▁Dexter	-11.5978
ラニスター	-11.5978
阻止	-11.5978
報復	-11.5978
輸送	-11.5978
航空	-11.5979
マシュー	-11.5979
済む	-11.598
役割	-11.598
相当	-11.598
理論	-11.5982
▁boring	-11.5982
信じている	-11.5985
まったく	-11.5988
成功する	-11.5988
座り	-11.5989
ゲン	-11.5991
なきゃならない	-11.5996
▁angle	-11.5998
まとめ	-11.6007
残す	-11.6009
助けが必要	-11.6011
▁deck	-11.6012
ノック	-11.6013
ヤク	-11.6015
ネイ	-11.6015
祖父	-11.6018
▁wishes	-11.6018
▁Scr	-11.6021
話してた	-11.6026
両人	-11.6029
▁Lin	-11.603
ぼく	-11.603
なきゃいけない	-11.6031
許す	-11.6032
鎖	-11.6034
魔術	-11.6034
健	-11.6034
拍	-11.6034
▁challenge	-11.6034
▁destination	-11.6034
▁recompense	-11.6034
旦那	-11.6034
▁さようなら	-11.6034
▁Smith	-11.6034
▁trapped	-11.6034
▁crawl	-11.6034
シーズン	-11.6034
▁organization	-11.6035
▁伏せろ	-11.6035
野球	-11.6035
▁joy	-11.6036
▁countries	-11.6036
昼食	-11.6037
▁Army	-11.6038
ゼル	-11.6038
優しく	-11.6038
▁guardian	-11.6039
処分	-11.604
唱え	-11.6043
ディスク	-11.6046
電子	-11.6048
▁healthy	-11.6051
▁pissed	-11.6058
しもべたち	-11.606
これまで	-11.6061
▁Leon	-11.6062
ハル	-11.6064
▁novel	-11.6067
▁prepare	-11.6067
白人	-11.6067
ただし	-11.6069
タウン	-11.6072
元に戻	-11.6073
37	-11.6078
▁Nu	-11.608
に従え	-11.6084
リスク	-11.6089
▁何をする	-11.6089
写	-11.609
承	-11.6091
築	-11.6091
丘	-11.6091
嘲笑	-11.6091
泉	-11.6091
労働	-11.6091
▁Answer	-11.6091
▁gentleman	-11.6091
▁unfortunate	-11.6091
▁conceal	-11.6091
テーマ	-11.6091
▁warrior	-11.6091
ブリッジ	-11.6092
前回までの	-11.6092
拡大	-11.6092
意図	-11.6093
▁font	-11.6095
▁Christian	-11.6096
▁charity	-11.6096
ショット	-11.6097
お友達	-11.6097
▁expression	-11.6099
説明する	-11.6101
イラク	-11.6103
ask	-11.6107
っきり	-11.6107
ぼう	-11.6112
落とした	-11.6112
▁loan	-11.6113
支払い	-11.6117
連れて行って	-11.6122
更	-11.6138
just	-11.6143
が必要なんだ	-11.6143
▁printer	-11.6147
チャン	-11.6147
ことはありません	-11.6147
里	-11.6148
乾	-11.6149
災厄	-11.6149
晒	-11.6149
序	-11.6149
膝	-11.6149
▁ordinary	-11.6149
▁international	-11.6149
▁National	-11.6149
裏切り者	-11.6149
▁improve	-11.6149
▁貴様	-11.6149
苦痛	-11.615
トンネル	-11.615
▁Liv	-11.6155
▁マルコ	-11.6159
▁rose	-11.6161
火事	-11.6162
Let	-11.6164
走る	-11.6164
▁Kar	-11.6173
もらい	-11.6174
見えるか	-11.6174
ベリー	-11.6174
電話番号	-11.6175
望んでいる	-11.6184
完全な	-11.6191
方が良い	-11.6195
革	-11.6203
泣いて	-11.6206
隔	-11.6206
爪	-11.6207
竜	-11.6207
▁covenant	-11.6207
▁exercise	-11.6207
▁wolf	-11.6207
▁breach	-11.6207
▁Ugh	-11.6207
雄基	-11.6207
▁Boston	-11.6207
挑戦	-11.6207
帰宅	-11.6207
▁rude	-11.6208
半田	-11.6208
GO	-11.6209
感覚	-11.6209
住民	-11.6209
▁weakness	-11.621
▁Hunt	-11.6211
5,000	-11.6213
▁Eye	-11.6214
謝罪	-11.6218
死刑	-11.6218
中へ	-11.6218
被害	-11.6219
▁Korea	-11.6221
やって来る	-11.6224
見なさい	-11.623
▁Robb	-11.6232
そうなる	-11.6233
事業	-11.6234
安全な場所	-11.6235
正しい道	-11.6237
プロファイル	-11.6238
▁carefully	-11.6242
絶え	-11.6251
▁lest	-11.6255
▁True	-11.6261
境	-11.6263
由	-11.6264
一生懸命	-11.6265
etProp	-11.6265
▁feature	-11.6265
▁unusual	-11.6265
炭	-11.6265
▁drove	-11.6265
を含む	-11.6265
気づいて	-11.6265
中身	-11.6265
認証	-11.6265
▁Linda	-11.6266
見つかり	-11.6266
権威	-11.6266
▁cried	-11.6266
そう言った	-11.6268
▁legend	-11.6269
▁ほんとに	-11.6271
▁Page	-11.6273
long	-11.6274
▁coward	-11.6274
▁stopping	-11.6275
出席	-11.6288
Mighty	-11.6293
何回	-11.6301
▁お前たち	-11.6306
誤り	-11.6311
break	-11.6321
言い方	-11.6323
▁Majesty	-11.6323
▁cigarette	-11.6323
▁recruit	-11.6323
アマンダ	-11.6323
願って	-11.6324
▁bread	-11.6324
海岸	-11.6324
勤務	-11.6324
構造	-11.6324
知ってます	-11.6325
栄光	-11.6325
嘘付き	-11.6325
監視カメラ	-11.6325
▁score	-11.6326
気付いた	-11.6329
OP	-11.6329
▁Tonight	-11.6329
▁lake	-11.633
▁pounds	-11.6333
water	-11.6334
▁twin	-11.6336
ブラウン	-11.6338
聞いてない	-11.6338
▁Lang	-11.6342
望んだ	-11.6343
▁Rob	-11.6345
らどうだ	-11.6347
申し出	-11.6349
落とし	-11.6366
エラ	-11.6369
外れ	-11.6371
災	-11.6372
▁あの女	-11.6377
粉	-11.638
そこへ	-11.6381
	-11.6382
勘	-11.6382
▁automatically	-11.6382
▁dancing	-11.6382
欲しくない	-11.6382
販売	-11.6382
▁Marcus	-11.6382
規模	-11.6382
related	-11.6383
何かある	-11.6383
▁decree	-11.6384
襲撃	-11.6384
▁cattle	-11.6384
モーガン	-11.6384
満ち	-11.6386
これらの者	-11.6388
持たない	-11.6391
眠り	-11.6393
車両	-11.6394
▁Rose	-11.6394
パーク	-11.6395
聞きました	-11.6395
逮捕された	-11.6398
業者	-11.64
サーバー	-11.6406
寝室	-11.6413
故	-11.6419
一歩	-11.6433
わかっている	-11.6433
責任者	-11.6436
を守るため	-11.6436
儀	-11.6441
池	-11.6441
▁Central	-11.6441
▁England	-11.6441
▁passenger	-11.6441
▁revenge	-11.6441
▁romantic	-11.6441
揃	-11.6441
▁chemical	-11.6441
▁Connor	-11.6441
委員会	-11.6441
▁cream	-11.6441
Script	-11.6441
▁mystery	-11.6442
悲劇	-11.6442
対象	-11.6442
重荷	-11.6442
プリンタ	-11.6443
ジャンプ	-11.6444
日本語	-11.6445
▁handsome	-11.6446
▁ディーン	-11.6447
買え	-11.6447
ディング	-11.6449
不満	-11.6457
ビーチ	-11.6457
任せろ	-11.6459
伝えてくれ	-11.646
ゼン	-11.6462
回目	-11.6464
LY	-11.6468
▁mock	-11.647
やって来た	-11.6473
残ってる	-11.6483
国王	-11.6484
▁Russia	-11.6493
ストラ	-11.6493
出してくれ	-11.6495
狩	-11.6495
巨大な	-11.6501
粒	-11.6501
▁Department	-11.6501
▁Service	-11.6501
符	-11.6501
徹	-11.6501
お客様	-11.6501
▁Point	-11.6502
国境	-11.6502
▁utter	-11.6502
救急	-11.6503
乗客	-11.6503
amount	-11.6505
▁ジョニー	-11.6506
▁Half	-11.6508
▁%3	-11.6511
アッラーはかれら	-11.6513
▁Plan	-11.6514
ョ	-11.6514
▁僕達	-11.6514
▁Fair	-11.6515
できん	-11.6515
▁そういうこと	-11.6517
▁restore	-11.6524
アルファ	-11.6529
を探している	-11.6529
入手	-11.653
ミット	-11.6536
間違っている	-11.6536
出来ません	-11.6558
▁その男	-11.656
杖	-11.6561
▁precious	-11.6561
▁robbery	-11.6561
▁structure	-11.6561
▁translation	-11.6561
ウィリアム	-11.6561
▁NSA	-11.6561
▁disagree	-11.6561
▁investigate	-11.6561
▁random	-11.6561
▁shelter	-11.6561
絶望	-11.6562
▁救急車	-11.6562
▁Monday	-11.6562
叫び	-11.6562
続いて	-11.6563
power	-11.6566
狩り	-11.6566
▁McC	-11.6567
▁alter	-11.6568
▁幸運を	-11.6569
▁emotion	-11.6571
RT	-11.6576
開き	-11.6577
君たち	-11.6582
▁Roman	-11.6583
悪化	-11.6585
▁この事件	-11.6599
黒人	-11.6604
仕方ない	-11.6604
who	-11.6606
を恐れて	-11.6614
既	-11.6616
出来ます	-11.662
垂	-11.6621
掟	-11.6621
欺	-11.6621
戯	-11.6621
随	-11.6621
貯	-11.6621
▁Rebecca	-11.6621
▁descend	-11.6621
▁homicide	-11.6621
▁shield	-11.6621
▁Fifth	-11.6621
▁reckon	-11.6621
アフリカ	-11.6621
▁stretch	-11.6621
▁チャールズ	-11.6621
棚	-11.6621
▁Iraq	-11.6621
▁trash	-11.6621
ゴードン	-11.6622
▁wander	-11.6622
▁breast	-11.6623
▁sexual	-11.6623
▁crown	-11.6623
合格	-11.6625
▁それじゃあ	-11.6626
▁nerve	-11.6626
出てくる	-11.6632
ビジョン	-11.6635
▁latest	-11.6635
配達	-11.6636
▁mile	-11.6641
人殺し	-11.6647
ちゃダメ	-11.6648
見つめ	-11.6656
持ってない	-11.6658
受け取った	-11.6659
手遅れ	-11.6659
fuck	-11.6662
▁comb	-11.6667
好きじゃない	-11.6673
漏	-11.6677
来なかった	-11.6677
ホル	-11.6678
ないで下さい	-11.6679
怠	-11.6682
狭	-11.6682
プラグイン	-11.6682
▁configuration	-11.6682
▁elevator	-11.6682
▁magazine	-11.6682
▁ゾーイ	-11.6682
▁extension	-11.6682
かわいそう	-11.6682
▁royal	-11.6682
▁twist	-11.6682
▁serial	-11.6682
▁jinn	-11.6682
▁jerk	-11.6682
▁priest	-11.6682
▁surface	-11.6682
▁forbidden	-11.6682
刺激	-11.6683
▁arrow	-11.6683
▁タイラー	-11.6684
ホスト	-11.6685
切断	-11.6685
ここにある	-11.6688
出てきた	-11.6693
▁cheer	-11.6695
と同じように	-11.6696
そうですね	-11.6699
▁Annie	-11.67
インチ	-11.6701
ように見える	-11.6702
燃	-11.6704
殺してない	-11.6708
▁vent	-11.6708
▁reality	-11.6709
海外	-11.6717
▁分った	-11.6717
存在しない	-11.6726
▁Qur	-11.673
▁dirt	-11.6734
▁Create	-11.674
スミス	-11.6741
主の御許	-11.6742
合衆国	-11.6743
塞	-11.6743
identified	-11.6743
▁activity	-11.6743
▁laptop	-11.6743
講	-11.6743
▁technical	-11.6743
▁yellow	-11.6743
河	-11.6743
▁skull	-11.6743
▁float	-11.6743
給料	-11.6743
自宅	-11.6744
軌道	-11.6746
▁Princess	-11.6748
▁glasses	-11.6753
続けろ	-11.6756
▁Island	-11.6758
うまくいく	-11.6766
警	-11.677
▁どうせ	-11.6772
消える	-11.6775
をとって	-11.6776
合ってる	-11.6777
▁hunter	-11.678
▁何てこと	-11.6789
のおかげ	-11.6795
令	-11.6802
依頼	-11.6803
暗号	-11.6804
繁	-11.6804
不義を行う者	-11.6804
▁Connect	-11.6804
▁Protect	-11.6804
ミッション	-11.6804
券	-11.6804
encoding	-11.6804
▁Brennan	-11.6804
▁Enjoy	-11.6804
▁Finally	-11.6804
▁silent	-11.6804
▁prize	-11.6804
▁repair	-11.6804
▁civilian	-11.6805
論争	-11.6806
公式	-11.6807
▁エリック	-11.6809
write	-11.6809
女房	-11.6812
盗んで	-11.6816
アクション	-11.6817
高度	-11.682
▁Mak	-11.682
while	-11.6821
ワル	-11.6823
しょう	-11.6831
見せろ	-11.6836
▁discover	-11.6844
▁Canno	-11.6852
ギン	-11.6857
▁これを見て	-11.6858
行ってくれ	-11.6862
▁Gen	-11.6863
岸	-11.6865
背き去る	-11.6865
▁この家	-11.6866
干	-11.6866
▁bounty	-11.6866
▁impressed	-11.6866
アドバイス	-11.6866
網	-11.6866
頑張れ	-11.6866
肝	-11.6866
封鎖	-11.6866
▁AND	-11.6866
▁await	-11.6866
舞台	-11.6867
▁Text	-11.6867
▁ケビン	-11.6867
▁clip	-11.6867
役立つ	-11.6867
潜入	-11.6868
▁GPS	-11.6869
わかります	-11.6869
espite	-11.6871
死因	-11.6871
住み	-11.6875
▁どういう事	-11.6876
▁Owen	-11.6881
▁boil	-11.6882
美人	-11.6882
冷たい	-11.6883
Where	-11.6884
Good	-11.6884
▁parties	-11.6888
▁hug	-11.6889
短い	-11.6891
第二	-11.6896
を残して	-11.6901
▁アリス	-11.6915
レイン	-11.6915
▁Though	-11.6917
充	-11.6924
生き残る	-11.6926
比	-11.6927
諜報	-11.6928
▁April	-11.6928
▁silence	-11.6928
▁exposed	-11.6928
▁motive	-11.6928
巡査	-11.6928
以降	-11.6928
▁grandfather	-11.6928
護衛	-11.6928
自慢	-11.6928
遅刻	-11.6928
▁起きろ	-11.6928
▁couch	-11.6929
警告者	-11.693
急ぐ	-11.6933
▁Maria	-11.6936
ピザ	-11.6936
▁toast	-11.6936
77	-11.6936
手錠	-11.6938
カネ	-11.694
▁properly	-11.6943
space	-11.695
地震	-11.6951
いくつ	-11.6952
買い物	-11.6952
苦しみ	-11.6953
▁Hour	-11.6955
カギ	-11.6959
▁Mine	-11.696
▁Cole	-11.6964
助手	-11.6973
ボストン	-11.6973
囲まれ	-11.6974
飛	-11.6976
隊長	-11.6987
▁Eat	-11.6987
還	-11.699
陽	-11.699
賃	-11.699
筆	-11.699
▁Lincoln	-11.699
▁Republic	-11.699
▁Saturday	-11.699
▁incredible	-11.699
▁invitation	-11.699
▁privilege	-11.699
▁quality	-11.699
▁reflect	-11.699
▁レイチェル	-11.699
刀	-11.699
豆	-11.699
▁残念ながら	-11.699
▁occurred	-11.699
騎士	-11.699
▁baseball	-11.6991
楽しめ	-11.6991
対策	-11.6992
ナンバー	-11.6993
締	-11.6995
運び	-11.6996
▁River	-11.7001
▁Burn	-11.7003
▁ここで何を	-11.7004
捕まった	-11.7008
務め	-11.7011
EE	-11.7011
ロープ	-11.7012
研究室	-11.7014
すみません	-11.7016
来れば	-11.7024
分前	-11.7025
怒らせ	-11.7027
stone	-11.7037
出かける	-11.7038
テッド	-11.7046
談	-11.7053
イスラエルの子孫	-11.7053
	-11.7053
蓄	-11.7053
厚	-11.7053
▁disturb	-11.7053
ガソリン	-11.7053
▁delicious	-11.7053
HTTP	-11.7053
▁precise	-11.7053
風呂	-11.7053
▁smooth	-11.7053
▁chasing	-11.7053
▁tidings	-11.7053
ドロイド	-11.7054
scope	-11.7055
損傷	-11.7056
▁drama	-11.7057
地位	-11.7061
▁Nine	-11.7064
上がり	-11.7065
出さない	-11.7067
フェル	-11.7071
行きなさい	-11.7073
去り	-11.7075
▁Kara	-11.7076
銃撃	-11.7077
▁Boo	-11.7082
ことができない	-11.7084
足り	-11.7089
▁download	-11.7091
ドゥー	-11.7093
着替え	-11.7114
▁Pol	-11.7115
援	-11.7115
▁あなたがた信仰する者よ	-11.7116
適切な	-11.7116
▁consequence	-11.7116
▁suspicious	-11.7116
▁audience	-11.7116
陪	-11.7116
▁Option	-11.7116
肌	-11.7116
▁Vega	-11.7116
▁warehouse	-11.7116
に応じ	-11.7117
顧客	-11.7117
済まない	-11.7117
▁Indian	-11.7118
盗聴	-11.7118
▁brown	-11.7118
アッラーの外に	-11.7119
結論	-11.7119
▁キャシー	-11.7121
文化	-11.7121
▁今のところ	-11.7122
ハンター	-11.7127
▁Base	-11.7136
friend	-11.7143
落ち着いて	-11.7146
すまない	-11.7166
奇妙	-11.7168
目撃	-11.7175
捏造	-11.718
史	-11.718
あなたがたの行うこと	-11.718
図書館	-11.718
▁practical	-11.718
▁telephone	-11.718
▁Caleb	-11.718
▁Scripture	-11.718
▁Marcel	-11.718
▁何ですって	-11.7181
資料	-11.7181
▁zone	-11.7181
▁fancy	-11.7181
向かい	-11.7182
▁Quiet	-11.7182
▁Kiera	-11.7182
尾行	-11.7182
▁Import	-11.7182
果実	-11.7182
告白	-11.7183
▁カイル	-11.7184
遣わした	-11.7187
を設定します	-11.7188
多数	-11.7188
▁wage	-11.7189
▁Therefore	-11.719
▁Unable	-11.7194
▁Fight	-11.7194
売れ	-11.7195
信頼できる	-11.7205
▁何もかも	-11.721
guard	-11.7213
トランク	-11.7216
ONE	-11.7229
を失って	-11.7232
使命	-11.7239
奇	-11.7244
アッラーとその使徒	-11.7244
均	-11.7244
鋭	-11.7244
▁Obviously	-11.7244
▁afflict	-11.7244
▁council	-11.7244
▁society	-11.7244
▁throne	-11.7244
癌	-11.7244
▁unique	-11.7244
簿	-11.7244
郵便	-11.7244
餌	-11.7244
▁grief	-11.7244
▁トーマス	-11.7244
コイツ	-11.7244
雑誌	-11.7244
▁snake	-11.7244
▁flame	-11.7244
関与	-11.7245
裁判所	-11.7245
▁オレたち	-11.7245
▁junk	-11.7245
寂しい	-11.7246
辞書	-11.7246
▁rumor	-11.7246
▁toilet	-11.7249
▁steel	-11.7256
くださ	-11.7262
話しかけ	-11.7265
隠れ家	-11.7265
▁bail	-11.7268
生成	-11.7268
似てる	-11.7271
ヘイ	-11.7272
▁pipe	-11.7276
claim	-11.7281
概	-11.7309
皮膚	-11.7309
デスクトップ	-11.7309
甲	-11.7309
キャプテン	-11.7309
一晩中	-11.7309
▁British	-11.7309
▁wicked	-11.7309
▁Casey	-11.7309
▁サイモン	-11.7309
指導者	-11.7309
誘惑	-11.7309
▁Wonder	-11.731
触るな	-11.731
アリバイ	-11.7311
ピアノ	-11.7311
とは思えない	-11.7311
達成	-11.7316
引数	-11.732
フィート	-11.7321
▁アンディ	-11.7322
▁dating	-11.7324
書いてある	-11.7328
飢え	-11.7331
しばらく	-11.7347
▁それより	-11.7354
Qu	-11.7354
ピーター	-11.7356
▁Rosa	-11.7372
ダイア	-11.7373
譲	-11.7374
著	-11.7374
▁Rigsby	-11.7374
巣	-11.7374
▁Bishop	-11.7374
リグスビー	-11.7374
▁Group	-11.7374
寛容にして慈悲深くあられる	-11.7374
浪	-11.7374
盤	-11.7374
▁proceed	-11.7374
種々の	-11.7374
://	-11.7374
▁alibi	-11.7374
▁adopt	-11.7374
酸素	-11.7374
▁bored	-11.7375
defined	-11.7375
合図	-11.7377
▁グレース	-11.7382
薬物	-11.7383
楽しく	-11.7383
サイド	-11.7383
▁Cheers	-11.7386
時間前	-11.7386
を通して	-11.7392
ホット	-11.7393
迷わせ	-11.7399
祖母	-11.7399
▁maid	-11.7402
高速	-11.7403
▁残りの	-11.7404
数週間	-11.741
asu	-11.7413
英	-11.7414
を持っています	-11.7415
決めて	-11.7416
コーン	-11.7433
忙	-11.7437
則	-11.7439
▁Samaritan	-11.7439
▁century	-11.7439
▁blessed	-11.7439
▁admire	-11.7439
偶像	-11.7439
▁approve	-11.7439
野朗	-11.7439
屈辱	-11.7439
▁garage	-11.7439
▁predict	-11.7439
嘘をついた	-11.744
夫婦	-11.744
イスラム	-11.7441
意思	-11.7442
▁blade	-11.7443
革命	-11.7443
通過	-11.7444
集会	-11.7444
ケンカ	-11.7445
思わせ	-11.7446
▁agreement	-11.7448
ミング	-11.7452
まもなく	-11.7453
報道	-11.7457
の世話を	-11.7461
医学	-11.7466
果て	-11.7466
見つけました	-11.7476
探してた	-11.7478
レクター	-11.7482
▁なぜ私	-11.749
御好みにな	-11.7491
ここに来て	-11.7492
嫁	-11.7505
ジュリエット	-11.7505
吸血鬼	-11.7505
▁negative	-11.7505
▁Promise	-11.7505
操縦	-11.7505
mobile	-11.7505
▁Isaac	-11.7505
黄色	-11.7505
崩壊	-11.7505
▁extend	-11.7505
付き合い	-11.7506
オンライン	-11.7506
種族	-11.7507
▁cookie	-11.7509
▁Bank	-11.751
▁deaf	-11.751
ブラッド	-11.7511
貸してくれ	-11.7513
最後まで	-11.7516
フレッド	-11.7518
群れ	-11.752
降りろ	-11.7521
浮気	-11.7523
恵み	-11.7527
導かれる	-11.7531
部長	-11.7538
▁Rich	-11.754
Thank	-11.7553
ジェン	-11.7554
▁faithful	-11.7559
見かけ	-11.7561
完	-11.7561
▁deposit	-11.7565
育った	-11.7568
pack	-11.757
アッラーの道のために	-11.7571
贈	-11.7571
如	-11.7571
肺	-11.7571
▁mortal	-11.7571
悠里子	-11.7571
缶	-11.7571
▁complex	-11.7571
冒険	-11.7571
▁rabbit	-11.7571
大きさ	-11.7571
予測	-11.7572
▁Andrew	-11.7572
啓典の民	-11.7573
建	-11.7573
▁extract	-11.7573
ウィルス	-11.7573
▁Warren	-11.7573
怖かった	-11.7574
96	-11.7575
充分	-11.7575
▁development	-11.7576
上昇	-11.7582
臭	-11.7609
ふうに	-11.7611
レポート	-11.7614
▁plea	-11.7616
どっち	-11.7625
例え	-11.7627
慢	-11.7636
編	-11.7637
時を思い起	-11.7637
きちんと	-11.7638
塊	-11.7638
駐	-11.7638
▁Minister	-11.7638
▁coincidence	-11.7638
嗅	-11.7638
径	-11.7638
オープン	-11.7638
▁destruction	-11.7638
翻訳	-11.7638
▁Nikita	-11.7638
田舎	-11.7638
英知	-11.7638
関わる	-11.7639
保持	-11.7639
を開けろ	-11.7639
▁snap	-11.764
を追う	-11.764
▁Jess	-11.7642
▁Nazir	-11.7643
感動	-11.7644
▁Line	-11.7653
物事	-11.7653
▁政府は	-11.7654
▁poet	-11.7656
王様	-11.7677
抜け出	-11.7678
スイッチ	-11.7692
キッド	-11.7702
	-11.7705
蜂	-11.7705
sufficient	-11.7705
▁Chloe	-11.7705
▁grandmother	-11.7705
▁perimeter	-11.7705
ギリシャ	-11.7705
ビショップ	-11.7705
大使館	-11.7705
婆	-11.7705
湯	-11.7705
▁behalf	-11.7705
▁Ethan	-11.7705
forgiving	-11.7705
弁護	-11.7705
汚染	-11.7705
▁bio	-11.7705
生涯	-11.7705
怪しい	-11.7706
近づけ	-11.7706
▁brush	-11.7706
▁Julie	-11.7709
▁diver	-11.7709
サンプル	-11.771
扱う	-11.7713
引き受け	-11.7717
▁聞こえるか	-11.7717
▁あなたたち	-11.7722
巨人	-11.7737
決心	-11.7743
を示し	-11.7756
凄	-11.7756
やってきた	-11.7767
御言葉	-11.777
▁avail	-11.7771
	-11.7772
礼拝の務めを守	-11.7772
偉力ならびなく	-11.7772
▁abroad	-11.7772
▁procedure	-11.7772
▁vault	-11.7772
伯	-11.7772
光栄です	-11.7772
旗	-11.7772
▁nasty	-11.7772
▁offense	-11.7772
クーパー	-11.7773
▁permit	-11.7773
がっかり	-11.7773
承認	-11.7773
挿入	-11.7773
▁tennis	-11.7773
墜落	-11.7773
▁Elias	-11.7773
ヤバい	-11.7773
ファイル名	-11.7773
▁jewel	-11.7773
乗り越え	-11.7773
凶器	-11.7773
発砲	-11.7774
整理	-11.7774
叫ぶ	-11.7774
丁度	-11.7774
事項	-11.7775
▁performance	-11.7775
▁Alpha	-11.7776
▁slaughter	-11.7776
▁Drink	-11.7779
不能	-11.778
▁Mode	-11.7782
▁gay	-11.7783
控え	-11.7783
連れてきた	-11.7784
はずがない	-11.7787
お疲れ	-11.7796
ームス	-11.7797
▁rig	-11.7806
判事	-11.7808
▁forbid	-11.7818
くれてありがとう	-11.7829
錠	-11.7829
コロン	-11.7834
あげよう	-11.7835
プラン	-11.7837
慮	-11.784
砂漠	-11.784
クッキー	-11.784
プロパティ	-11.784
託	-11.784
▁accused	-11.784
▁fracture	-11.784
▁grieve	-11.784
云	-11.784
駐車場	-11.784
菌	-11.784
履歴	-11.7841
明かり	-11.7841
暮らす	-11.7841
少佐	-11.7841
error	-11.7841
書き込み	-11.7842
かれの外に	-11.7842
不信心な者	-11.7843
▁Click	-11.7845
▁cities	-11.7845
▁Karen	-11.7847
一日中	-11.7847
息子さん	-11.7848
テニス	-11.7851
わけではない	-11.7852
maker	-11.7854
話題	-11.7856
dependent	-11.7856
ことができた	-11.7858
を捜して	-11.7861
はありますか	-11.7865
取り引き	-11.7865
わかり	-11.7875
hydr	-11.7887
祖	-11.7897
▁emotional	-11.7898
を破壊し	-11.7898
▁prior	-11.7908
▁occur	-11.7909
アクティブ	-11.7909
蛇	-11.7909
わざわざ	-11.7909
▁Beautiful	-11.7909
▁Hannah	-11.7909
磨	-11.7909
▁module	-11.7909
▁naked	-11.7909
インターネット	-11.7909
▁muscle	-11.7909
▁threatened	-11.7909
▁visual	-11.7909
▁withdraw	-11.7909
▁midnight	-11.7909
牧師	-11.7909
競争	-11.7909
▁Honor	-11.7909
完全	-11.791
単位	-11.791
▁thick	-11.791
▁Jeff	-11.7911
話し合い	-11.7911
▁abide	-11.7912
▁abuse	-11.7915
▁gear	-11.7916
▁slide	-11.7917
キリスト	-11.7923
国内	-11.7929
電話に出	-11.7953
を傷つける	-11.7968
幸	-11.7968
主義者	-11.7968
夢を見	-11.7973
徴	-11.7978
	-11.7978
あちこち	-11.7978
▁Chicago	-11.7978
▁flood	-11.7978
セクシー	-11.7978
畑	-11.7978
▁Nathan	-11.7978
此処	-11.7978
▁Hotel	-11.7978
▁species	-11.7978
最も優れた	-11.7979
▁shopping	-11.7979
激しい	-11.7981
▁気にしないで	-11.7982
惚れ	-11.7982
同情	-11.7983
一瞬	-11.7984
抜く	-11.7988
働いた	-11.7993
研究所	-11.7997
▁来てくれて	-11.7998
言わせて	-11.8005
以下	-11.8033
talk	-11.8039
休んで	-11.8046
悔悟して	-11.8047
▁relation	-11.8047
躍	-11.8047
嬢	-11.8047
▁Private	-11.8047
▁Twenty	-11.8047
▁exciting	-11.8047
▁interpret	-11.8047
▁museum	-11.8047
▁valuable	-11.8047
▁various	-11.8047
忠実	-11.8047
▁Lucas	-11.8047
▁restrain	-11.8047
陰謀	-11.8048
展開	-11.8048
風邪	-11.8048
稼ぎ	-11.8049
固定	-11.8049
マイケル	-11.805
CIA	-11.8053
▁Canada	-11.8053
▁DEA	-11.8056
発明	-11.8061
手続き	-11.8064
▁icon	-11.807
を失い	-11.8079
議長	-11.808
▁horn	-11.8088
どうだい	-11.8096
挙	-11.8107
▁Nazi	-11.8113
過ごして	-11.8115
▁instruct	-11.8117
滴	-11.8117
糧	-11.8117
癖	-11.8117
▁Elizabeth	-11.8117
▁Spanish	-11.8117
▁disobey	-11.8117
▁encounter	-11.8117
▁possibility	-11.8117
▁survivor	-11.8117
▁temperature	-11.8117
▁distinct	-11.8117
イスラエル	-11.8117
▁cruel	-11.8117
▁adjust	-11.8118
▁behave	-11.8118
衣装	-11.8118
ハッキング	-11.8118
値段	-11.8118
地下鉄	-11.8118
読み込み	-11.8119
▁dawn	-11.8119
▁Carlos	-11.8119
ネルソン	-11.8119
軍勢	-11.812
▁appearance	-11.8121
なければならなかった	-11.8121
ヒット	-11.8122
▁shoe	-11.8124
アカウント	-11.8126
一団	-11.8127
▁Team	-11.8128
▁taxi	-11.8132
▁止まれ	-11.8134
非常	-11.8135
を売って	-11.8148
殺してやる	-11.8151
ボルト	-11.8152
提出	-11.8169
▁skip	-11.8172
緒	-11.8181
索	-11.8187
	-11.8188
久	-11.8188
すっかり	-11.8188
幹	-11.8188
臆	-11.8188
▁helicopter	-11.8188
▁influence	-11.8188
エレベーター	-11.8188
爵	-11.8188
磁	-11.8188
シカゴ	-11.8188
仲良く	-11.8188
▁narrow	-11.8188
▁juice	-11.8188
▁swimming	-11.8188
▁Center	-11.8188
▁burst	-11.8188
構築	-11.8188
▁internal	-11.8188
探偵	-11.8188
▁Delete	-11.8188
助けてくれる	-11.8188
を除いて	-11.8189
逃走	-11.8189
▁gig	-11.8189
▁Code	-11.819
反抗	-11.819
落とす	-11.819
▁Prime	-11.8192
演じ	-11.8192
▁moral	-11.8192
異なる	-11.8193
▁どうやら	-11.8194
泣く	-11.8196
▁friendship	-11.8198
原子	-11.8198
を指定します	-11.8199
思えない	-11.82
▁Brian	-11.8203
▁possession	-11.8209
抑	-11.8209
内側	-11.8212
飽き	-11.8214
巨	-11.8225
連れて行け	-11.8239
殺人者	-11.8244
世の中	-11.8247
拠	-11.8258
ムスリム	-11.8258
比較	-11.8259
胆	-11.8259
収穫	-11.8259
▁although	-11.8259
▁champion	-11.8259
▁reputation	-11.8259
勘違い	-11.8259
merciful	-11.8259
▁piano	-11.8259
ありがとうございました	-11.8259
皿	-11.8259
▁editor	-11.8259
ラッキー	-11.8259
▁smash	-11.8259
▁basically	-11.8259
古代	-11.8261
▁depart	-11.8261
を取り戻す	-11.8263
聖書	-11.8263
を引く	-11.8268
&	-11.827
わたしはあなたがた	-11.8271
自体	-11.8272
ologist	-11.8276
リオン	-11.8277
father	-11.828
吐き	-11.829
前進	-11.8297
巻き込まれ	-11.8297
▁differ	-11.8328
履	-11.833
忌	-11.833
銘	-11.833
砕	-11.833
翼	-11.833
慰	-11.833
クライアント	-11.833
稿	-11.833
▁Bullshit	-11.833
▁broadcast	-11.833
▁surrounded	-11.833
廊	-11.833
真面目	-11.833
▁Cameron	-11.833
スペース	-11.833
アルバム	-11.833
吹き飛ば	-11.833
評判	-11.833
▁naught	-11.8331
信念	-11.8333
告発	-11.8334
▁Flash	-11.8334
▁Gene	-11.8335
▁effective	-11.8335
苦手	-11.8337
連行	-11.8337
ボーイ	-11.8338
オーバー	-11.8339
▁vow	-11.834
グラム	-11.8344
▁Cool	-11.8345
When	-11.8345
▁origin	-11.8354
植物	-11.8361
▁Nik	-11.8369
に属する	-11.8371
▁psycho	-11.8376
▁involve	-11.8378
家に帰る	-11.8378
▁kilo	-11.8385
▁thin	-11.8396
希	-11.8402
▁Perfect	-11.8402
▁Texas	-11.8402
▁fantastic	-11.8402
▁investigating	-11.8402
▁john	-11.8402
ゅ	-11.8402
▁prophet	-11.8402
▁branch	-11.8402
▁stink	-11.8402
珍しい	-11.8402
キャンセル	-11.8403
終わらせる	-11.8403
▁priority	-11.8404
config	-11.8404
▁classified	-11.8404
▁信仰する者よ	-11.8404
聞こう	-11.8404
▁ちょっと失礼	-11.8405
▁plus	-11.8405
▁massive	-11.8406
▁missile	-11.8406
▁Aunt	-11.8406
▁reaction	-11.8407
▁Musa	-11.8408
▁comment	-11.8408
どうしたらいい	-11.8413
を襲った	-11.8414
を発見した	-11.8414
一緒だった	-11.8432
▁shine	-11.8434
出て行った	-11.8437
▁Push	-11.8459
▁guilt	-11.8465
haw	-11.8466
侵	-11.8473
守護者	-11.8474
忍耐	-11.8474
▁Honestly	-11.8474
▁chamber	-11.8474
▁deceive	-11.8474
浸	-11.8474
▁trauma	-11.8475
▁prostrate	-11.8475
▁さすが	-11.8475
建設	-11.8475
重大な	-11.8475
わざと	-11.8475
処刑	-11.8475
くだらない	-11.8475
教徒	-11.8475
▁entertain	-11.8475
気付かない	-11.8476
判決	-11.8476
会いたかった	-11.8476
司法	-11.8477
ツールバー	-11.8477
▁Quite	-11.8477
を犯す	-11.8479
ズボン	-11.8479
漏れ	-11.848
用件	-11.8482
▁Jean	-11.8502
良くなる	-11.8503
噛み	-11.8515
似ている	-11.8516
▁fashion	-11.852
抜いて	-11.8534
哀	-11.8545
牧	-11.8547
	-11.8547
成し遂げ	-11.8547
▁basic	-11.8547
ドキュメント	-11.8547
▁dictionary	-11.8547
▁lieutenant	-11.8547
拭	-11.8547
馬場園	-11.8547
と呼ばれる	-11.8548
強力な	-11.8548
直ちに	-11.8548
周囲	-11.8548
▁System	-11.8548
睡眠	-11.8548
▁downtown	-11.8548
アップロード	-11.8548
integer	-11.8548
商品	-11.8548
▁glory	-11.8549
製品	-11.8549
に仕える	-11.855
と同じくらい	-11.8551
解雇	-11.8552
▁グレン	-11.8553
かれは仰せられた	-11.8553
山々	-11.8559
戻せ	-11.8561
レコード	-11.8578
止められない	-11.8598
尽き	-11.8606
暗く	-11.862
往	-11.8621
偏	-11.8621
エクスポート	-11.8621
á	-11.8621
辿	-11.8621
▁Junior	-11.8621
▁fabric	-11.8621
▁financial	-11.8621
▁tissue	-11.8621
テキサス	-11.8621
蘇	-11.8621
▁babies	-11.8621
ニキータ	-11.8621
▁ashamed	-11.8621
▁pursue	-11.8621
▁initiat	-11.8621
▁insult	-11.8621
隔離	-11.8622
▁patch	-11.8622
▁paperwork	-11.8622
落ち着く	-11.8622
▁ルーク	-11.8622
イーサン	-11.8623
クリーム	-11.8623
▁Bravo	-11.8623
をチェックし	-11.8624
▁review	-11.8624
選び	-11.8626
▁シスター	-11.8627
▁rising	-11.8627
シールド	-11.8628
ストレス	-11.8629
発言	-11.8629
エントリ	-11.8631
呪文	-11.8632
▁stamp	-11.8632
下されたもの	-11.8656
他の誰か	-11.8659
を下した	-11.8662
申	-11.868
討	-11.8695
	-11.8695
奮闘	-11.8695
縄	-11.8695
秋	-11.8695
▁Supreme	-11.8695
▁alcohol	-11.8695
▁disgrace	-11.8695
庁	-11.8695
鉱	-11.8695
陣	-11.8695
ウサギ	-11.8695
▁drill	-11.8695
堅固	-11.8695
▁pitch	-11.8695
清算	-11.8696
主の恩恵	-11.8696
忙しく	-11.8697
使われて	-11.8697
▁dropping	-11.8698
▁arrangement	-11.8698
当局	-11.8699
2、3	-11.8702
▁Year	-11.8702
▁estate	-11.8704
借金	-11.8706
▁Marshal	-11.8708
リソース	-11.8716
▁いい子だ	-11.8716
cast	-11.8718
Arrow	-11.8718
晴れ	-11.8719
虐殺	-11.8728
▁Post	-11.8742
▁combat	-11.8748
頂け	-11.8768
糸	-11.877
背を向け	-11.877
▁Configure	-11.877
そっくり	-11.877
ステージ	-11.877
▁storage	-11.877
▁Berlin	-11.877
アラーム	-11.877
▁Patty	-11.877
Document	-11.877
資格	-11.877
遺産	-11.8771
▁located	-11.8771
▁propose	-11.8772
成果	-11.8772
パイプ	-11.8775
復帰	-11.878
によれば	-11.8785
怖がって	-11.879
▁tale	-11.8791
▁放して	-11.8793
少なくとも	-11.8805
濡れ	-11.8816
の所へ	-11.8824
マルチ	-11.8824
▁車に乗	-11.8828
払え	-11.8829
出て行って	-11.8844
幻	-11.8845
滞	-11.8845
惜	-11.8845
▁Abigail	-11.8845
▁adventure	-11.8845
▁campaign	-11.8845
▁education	-11.8845
ばっかり	-11.8845
▁Nancy	-11.8845
▁explode	-11.8845
置き去りに	-11.8845
▁escort	-11.8845
▁spoil	-11.8845
周辺	-11.8845
ありがたい	-11.8846
▁spill	-11.8846
▁Choose	-11.8846
死なない	-11.8848
消滅	-11.8849
▁theater	-11.8853
教えてください	-11.8854
費用	-11.8858
叩き	-11.8858
の住人	-11.8859
▁chill	-11.8863
▁100%	-11.8865
plication	-11.8865
が好きなの	-11.8876
▁Dark	-11.8896
	-11.89
娼婦	-11.8921
縫	-11.8921
▁instinct	-11.8921
▁television	-11.8921
腫	-11.8921
▁swallow	-11.8921
摂	-11.8921
永久に	-11.8921
▁forensic	-11.8921
▁therapy	-11.8921
日曜日	-11.8921
▁audio	-11.8921
▁abode	-11.8921
監禁	-11.8921
カップル	-11.8921
検討	-11.8921
▁accent	-11.8921
快適	-11.8921
▁convert	-11.8922
掛かる	-11.8922
予告	-11.8922
▁addict	-11.8923
友情	-11.8923
入院	-11.8924
▁colon	-11.8926
は別である	-11.8927
尽	-11.8931
女たち	-11.8957
atsu	-11.8959
入り口	-11.8969
を捕え	-11.8978
最中	-11.8979
否	-11.8996
猟	-11.8997
プロセス	-11.8997
博物館	-11.8997
瓶	-11.8997
▁kidnapped	-11.8997
チョコレート	-11.8997
拳	-11.8997
▁examination	-11.8997
丿	-11.8997
あんまり	-11.8997
▁retrieve	-11.8997
▁Judge	-11.8997
真ん中	-11.8997
▁corpse	-11.8997
▁prick	-11.8997
災難	-11.8997
▁tribe	-11.8997
召集	-11.8998
症状	-11.8998
▁bump	-11.8998
この関数の	-11.8998
放棄	-11.8998
寄付	-11.8999
ログイン	-11.9
選べ	-11.9
割れ	-11.9
▁tiny	-11.9
未知	-11.9001
開放	-11.9001
▁vice	-11.9003
小さく	-11.9007
▁salt	-11.9016
中に入れ	-11.9036
の一員	-11.9042
消息	-11.9058
を集めて	-11.9063
凡	-11.9066
連れ戻	-11.9068
頭痛	-11.9072
掃	-11.9074
債	-11.9074
▁cult	-11.9074
▁Moriarty	-11.9074
▁sacred	-11.9074
手掛かり	-11.9074
▁Lucky	-11.9074
▁Vincent	-11.9074
▁summon	-11.9074
▁superior	-11.9074
楽しむ	-11.9074
▁Katie	-11.9074
ネーム	-11.9074
虐待	-11.9074
inject	-11.9074
王妃	-11.9075
指令	-11.9075
進展	-11.9075
背景	-11.9075
印象	-11.9075
理想	-11.9075
▁grass	-11.9076
▁coast	-11.9076
初期	-11.9076
▁Davis	-11.9077
▁Castle	-11.9077
好意	-11.9078
にくい	-11.9079
アッラーに就いて	-11.9079
職場	-11.908
アッラーの印	-11.9116
おそらく	-11.9123
どのような	-11.9142
▁Chuck	-11.9145
此	-11.9151
響	-11.9151
ことを意味します	-11.9151
皇	-11.9151
汗	-11.9151
デザイン	-11.9151
遺伝子	-11.9151
※	-11.9151
▁arrogant	-11.9151
▁publish	-11.9151
共和国	-11.9151
海兵隊	-11.9151
炉	-11.9151
ü	-11.9151
▁disaster	-11.9151
MIME	-11.9151
▁Cross	-11.9151
同胞	-11.9151
硬	-11.9152
修復	-11.9152
帰還	-11.9152
▁series	-11.9152
▁prime	-11.9152
▁football	-11.9152
プレイヤー	-11.9152
▁election	-11.9152
クラウス	-11.9153
▁digging	-11.9153
▁マーカス	-11.9153
▁begging	-11.9153
厳重	-11.9153
勝負	-11.9154
足跡	-11.9154
▁subway	-11.9155
判明	-11.9156
free	-11.9159
ご覧	-11.9165
使わない	-11.9176
鈍	-11.9229
捉	-11.9229
猛	-11.9229
濃	-11.923
洞窟	-11.923
売春婦	-11.923
▁Project	-11.923
▁appropriate	-11.923
▁pizza	-11.923
▁puzzle	-11.923
▁senior	-11.923
▁supplies	-11.923
エリザベス	-11.923
渋	-11.923
▁Middle	-11.923
玄関	-11.923
▁いろんな	-11.923
牢	-11.923
▁Kingdom	-11.923
頂戴	-11.923
▁specify	-11.923
▁decade	-11.923
礼儀	-11.923
▁instructions	-11.923
副大統領	-11.923
儀式	-11.923
製造	-11.923
▁ハンナ	-11.9231
浴び	-11.9231
ハッピー	-11.9231
▁slipped	-11.9231
おばさん	-11.9231
ハンサム	-11.9231
▁bury	-11.9231
多少	-11.9232
免れ	-11.9232
集まって	-11.9232
▁Write	-11.9233
ATE	-11.9236
思える	-11.9248
に任せて	-11.926
を奪った	-11.926
▁気にするな	-11.9263
戻ろう	-11.9304
堕	-11.9308
	-11.9308
▁どういたしまして	-11.9308
浜	-11.9308
爺	-11.9308
▁generous	-11.9308
▁Finish	-11.9308
▁デレク	-11.9308
▁Sophie	-11.9308
▁Operation	-11.9308
▁scheme	-11.9308
殆ど	-11.9308
教訓	-11.9308
撤退	-11.9309
プレビュー	-11.9309
匿名	-11.9309
資産	-11.9309
▁Self	-11.931
宣言	-11.931
最終的に	-11.931
時間がかかる	-11.931
▁アーロン	-11.9312
▁testify	-11.9312
解読	-11.9312
恋愛	-11.9313
が見つかりません	-11.9315
書かれて	-11.9317
たいてい	-11.9323
コメント	-11.9324
パニック	-11.9329
ローカル	-11.9348
Been	-11.9371
▁nav	-11.9376
御心に適う者	-11.9387
賜	-11.9388
▁undercover	-11.9388
おかえり	-11.9388
ボーイフレンド	-11.9388
冠	-11.9388
▁Filter	-11.9388
▁battery	-11.9388
キャメロン	-11.9388
跳	-11.9388
▁Target	-11.9388
▁Throne	-11.9388
貴重な	-11.9388
▁Jews	-11.9388
購入	-11.9388
代償	-11.9389
並べ	-11.9389
グリッド	-11.939
校長	-11.939
わからなかった	-11.9392
▁Money	-11.9393
性格	-11.9393
▁許して	-11.9396
▁rib	-11.9401
バッジ	-11.9402
真似	-11.9409
ffe	-11.9451
どうなって	-11.9453
聴いて	-11.9454
貞	-11.9467
斎	-11.9467
憲	-11.9467
励	-11.9468
貫	-11.9468
褒	-11.9468
▁August	-11.9468
▁collapse	-11.9468
▁division	-11.9468
▁operating	-11.9468
▁opposite	-11.9468
▁sandwich	-11.9468
ガールフレンド	-11.9468
筒	-11.9468
▁Miami	-11.9468
▁initial	-11.9468
▁Grimm	-11.9468
つらい	-11.9468
▁software	-11.9468
▁ぜひ	-11.9468
▁reduce	-11.9469
pdf	-11.9469
▁humble	-11.9469
▁Starling	-11.947
近親	-11.9473
ちまう	-11.9475
▁Cast	-11.9487
焼かれ	-11.9497
背後に	-11.95
COM	-11.9512
震え	-11.9516
サイコ	-11.953
昨夜	-11.9539
暮らして	-11.954
因	-11.9541
	-11.9548
渇	-11.9548
▁Straight	-11.9548
▁destiny	-11.9548
▁nigger	-11.9548
引っ越し	-11.9548
熊	-11.9548
是	-11.9548
▁configure	-11.9548
境界	-11.9548
▁Fitz	-11.9548
▁クロエ	-11.9549
▁Pardon	-11.9549
警部補	-11.9549
移住	-11.9549
▁transform	-11.9549
▁Kelly	-11.9549
確証	-11.9549
▁interfere	-11.955
診断	-11.955
結末	-11.955
▁modern	-11.955
反乱	-11.955
▁glove	-11.9551
タイミング	-11.9551
▁Franklin	-11.9552
ウォーレン	-11.9553
項目	-11.9557
を避ける	-11.9558
Luci	-11.9585
のもとに	-11.9594
仰せられた	-11.9602
持ってきて	-11.9606
を取り戻し	-11.9625
そいつ	-11.9626
忍	-11.9629
京	-11.9629
不義の徒	-11.9629
民主主義	-11.9629
▁Division	-11.963
▁injured	-11.963
サマリア人	-11.963
ヴァンパイア	-11.963
平安あれ	-11.963
胃	-11.963
▁purchase	-11.963
スピーチ	-11.963
▁CVS	-11.963
▁rifle	-11.963
▁droid	-11.963
▁depth	-11.963
▁wrist	-11.963
おしゃべり	-11.963
マズイ	-11.963
▁wreck	-11.963
▁	-11.963
▁agency	-11.963
▁respite	-11.963
▁consume	-11.963
▁clinic	-11.963
保障	-11.963
同盟	-11.963
アッラーの恩恵	-11.9631
賢明	-11.9631
と思われる	-11.9632
表示されます	-11.9632
▁ジュリアン	-11.9632
▁winning	-11.9634
エディタ	-11.9643
言い訳	-11.9651
時点で	-11.9656
怪	-11.9694
識別	-11.9694
value	-11.971
カレンダー	-11.9712
▁Council	-11.9712
▁assignment	-11.9712
▁calendar	-11.9712
▁strategy	-11.9712
▁testimony	-11.9712
▁Bureau	-11.9712
▁Engine	-11.9712
分かんない	-11.9712
▁Daryl	-11.9712
▁Mercy	-11.9712
▁Folder	-11.9712
▁joking	-11.9712
▁instance	-11.9712
まっすぐ	-11.9712
▁jury	-11.9712
▁もしかして	-11.9712
思考	-11.9712
▁Albert	-11.9712
▁authorities	-11.9712
▁おはようございます	-11.9712
便利	-11.9713
▁Edward	-11.9714
進歩	-11.9714
▁existence	-11.9715
センサー	-11.9715
▁barrel	-11.9723
continu	-11.9743
当たり前	-11.9743
再開	-11.9762
偽信者	-11.977
嬉	-11.9793
Okay	-11.9793
績	-11.9794
郎	-11.9794
▁distress	-11.9794
▁embassy	-11.9794
▁impression	-11.9794
▁impressive	-11.9794
▁literally	-11.9794
▁実験的	-11.9794
林	-11.9794
▁Place	-11.9794
▁assigned	-11.9794
▁bargain	-11.9794
フィフス	-11.9794
募	-11.9794
ビジター	-11.9794
▁compound	-11.9794
把握	-11.9794
▁operate	-11.9794
兆候	-11.9794
特徴	-11.9795
▁falsehood	-11.9795
脱獄	-11.9795
暗黒	-11.9795
▁intercept	-11.9796
伝統	-11.9796
▁childhood	-11.9796
区別	-11.9796
静流	-11.9797
▁Ellis	-11.9797
損失	-11.9798
のどれを	-11.9798
▁Bobby	-11.9798
を破壊する	-11.9806
忍び	-11.9811
自動車	-11.9815
言われる	-11.9829
込まれた	-11.9832
範	-11.9877
喜捨	-11.9877
慌	-11.9877
▁routine	-11.9878
▁thumb	-11.9878
冊	-11.9878
phrase	-11.9878
▁School	-11.9878
耳を傾け	-11.9878
▁Dragon	-11.9878
▁creating	-11.9878
▁Gonna	-11.9878
▁transmit	-11.9878
魔術師	-11.9878
飛べ	-11.9878
▁interface	-11.9878
尊重	-11.9879
▁オーケイ	-11.9879
▁ISO	-11.988
▁stray	-11.9881
▁彼女は彼	-11.9886
不安定	-11.9887
帰ろう	-11.9923
▁abandon	-11.9939
を意味する	-11.9947
▁chick	-11.9955
鹿	-11.9961
排	-11.9961
票	-11.9961
暫	-11.9962
豪	-11.9962
脇	-11.9962
貼	-11.9962
揚	-11.9962
ibility	-11.9962
▁Judgment	-11.9962
▁Malcolm	-11.9962
▁Murder	-11.9962
▁Scylla	-11.9962
▁Understood	-11.9962
▁correspond	-11.9962
▁garbage	-11.9962
▁patrol	-11.9962
▁temporary	-11.9962
▁tragedy	-11.9962
キッチン	-11.9962
浅	-11.9962
▁Prepare	-11.9962
▁vessel	-11.9962
▁スーザン	-11.9962
哲	-11.9962
にもかかわらず	-11.9962
▁Fusco	-11.9962
下ろせ	-11.9962
▁average	-11.9962
材料	-11.9962
増加	-11.9963
▁Freeze	-11.9963
残酷	-11.9963
封じ	-11.9963
▁Bennet	-11.9964
▁minor	-11.9965
▁passport	-11.9966
を奪う	-11.9966
を設け	-11.9967
黄金	-11.9969
	-11.9985
会いに来	-11.9992
収集	-12.0009
を得て	-12.0042
奨	-12.0046
▁conspiracy	-12.0046
▁immortal	-12.0046
▁politics	-12.0046
▁religious	-12.0046
▁university	-12.0046
冷蔵庫	-12.0046
▁wrath	-12.0046
ジャケット	-12.0046
▁Solomon	-12.0046
▁mysterious	-12.0046
舟	-12.0046
オレンジ	-12.0046
スライマーン	-12.0046
海賊	-12.0046
排除	-12.0047
処罰	-12.0047
済ませ	-12.0047
及び	-12.0048
▁scrap	-12.0049
首相	-12.0049
terior	-12.005
▁Italy	-12.0052
小便	-12.0056
のお陰	-12.0058
難しく	-12.0059
盲目	-12.0061
タイトル	-12.0061
▁zoo	-12.0062
に値する	-12.0074
ラウンド	-12.0114
のバージョンで	-12.0129
武	-12.0131
誠にアッラーは	-12.0132
遠ざけ	-12.0132
コレクション	-12.0132
▁Abbott	-12.0132
▁Elijah	-12.0132
▁underneath	-12.0132
▁とりあえず	-12.0132
アンドリュー	-12.0132
宜	-12.0132
遮	-12.0132
鑑	-12.0132
▁Wanna	-12.0132
フェンス	-12.0132
注意を喚起するとともに	-12.0132
ホワイトハウス	-12.0132
解釈	-12.0132
▁Small	-12.0132
▁costume	-12.0132
幻覚	-12.0132
のリスクで	-12.0133
殺人鬼	-12.0133
▁Ripper	-12.0134
▁erase	-12.0153
どうにか	-12.0159
誇	-12.0212
	-12.0218
エジプト	-12.0218
ぴ	-12.0218
▁Focus	-12.0218
▁Pakistan	-12.0218
▁Yesterday	-12.0218
▁companies	-12.0218
▁confront	-12.0218
▁explosive	-12.0218
▁permanent	-12.0218
▁plugin	-12.0218
▁absence	-12.0218
▁pulse	-12.0218
葬儀	-12.0218
▁spider	-12.0218
いかがですか	-12.0218
時を思え	-12.0218
を抱えて	-12.0218
かまわない	-12.0219
NAME	-12.0219
触らないで	-12.0219
厳しい懲罰	-12.0219
射撃	-12.0219
▁Homeland	-12.0219
アジア	-12.0222
Conf	-12.0249
ユダヤ	-12.0272
▁Que	-12.0282
の御許	-12.0293
妙	-12.0302
懲	-12.0305
梅	-12.0305
雄	-12.0305
環	-12.0305
▁Afghanistan	-12.0305
▁Elliot	-12.0305
▁Enterprise	-12.0305
▁Hannibal	-12.0305
▁nonsense	-12.0305
▁population	-12.0305
▁トラヴィス	-12.0305
トリンドル	-12.0305
▁stabbed	-12.0305
▁フィリップ	-12.0305
翌	-12.0305
▁facing	-12.0305
ボタンを押	-12.0305
根拠	-12.0305
描画	-12.0306
相続	-12.0306
毎晩	-12.0307
たがってる	-12.0335
療法	-12.0367
制服	-12.0375
侮辱	-12.0393
鍛	-12.0393
▁Dunham	-12.0393
▁disbelief	-12.0393
いっしょに	-12.0393
伺	-12.0393
偉力ならびなく英明であられる	-12.0393
▁reserve	-12.0393
蔵	-12.0393
皇帝	-12.0393
▁ブライアン	-12.0393
▁(%1)	-12.0393
▁clown	-12.0393
▁ransom	-12.0393
width	-12.0393
凡そ	-12.0393
バラバラ	-12.0393
▁cease	-12.0393
スタッフ	-12.0393
▁communicate	-12.0394
装備	-12.0394
業界	-12.0394
動脈	-12.0394
訪ねて	-12.0395
▁準備はいい	-12.0397
▁orange	-12.0399
エリカ	-12.0414
Indeed	-12.0418
たぶん	-12.0419
うるさ	-12.0479
準	-12.0481
アッラーと使徒	-12.0481
窮	-12.0481
吊	-12.0481
倫	-12.0481
疫	-12.0481
▁Sebastian	-12.0481
▁analysis	-12.0481
▁combination	-12.0481
▁earthquake	-12.0481
▁unexpected	-12.0481
▁普段	-12.0481
▁Network	-12.0481
▁Greek	-12.0481
▁sweep	-12.0481
鶏	-12.0481
▁swore	-12.0481
衝撃	-12.0481
お父様	-12.0482
▁culture	-12.0482
ヵ月	-12.0482
バックアップ	-12.0482
筋肉	-12.0482
▁Believers	-12.0483
伏	-12.0483
大臣	-12.0483
やっつけ	-12.0483
▁Kirk	-12.0484
xml	-12.0484
▁blond	-12.0485
Moses	-12.0511
looking	-12.0511
いったい何	-12.055
▁immediate	-12.0563
本当にこの中には	-12.057
この関数を使用し	-12.057
プロトコル	-12.057
享	-12.057
[...]
